{
  "version": "1.0",
  "truncation": {
    "direction": "Right",
    "max_length": 256,
    "strategy": "LongestFirst",
    "stride": 0
  },
  "padding": {
    "strategy": "BatchLongest",
    "direction": "Right",
    "pad_to_multiple_of": null,
    "pad_id": 1,
    "pad_type_id": 0,
    "pad_token": "<pad>"
  },
  "added_tokens": [
    {
      "id": 0,
      "content": "<unk>",
      "single_word": false,
      "lstrip": false,
      "rstrip": false,
      "normalized": false,
      "special": true
    },
    {
      "id": 1,
      "content": "<pad>",
      "single_word": false,
      "lstrip": false,
      "rstrip": false,
      "normalized": false,
      "special": true
    },
    {
      "id": 2,
      "content": "<cls>",
      "single_word": false,
      "lstrip": false,
      "rstrip": false,
      "normalized": false,
      "special": true
    },
    {
      "id": 3,
      "content": "<sep>",
      "single_word": false,
      "lstrip": false,
      "rstrip": false,
      "normalized": false,
      "special": true
    },
    {
      "id": 4,
      "content": "<mask>",
      "single_word": false,
      "lstrip": false,
      "rstrip": false,
      "normalized": false,
      "special": true
    }
  ],
  "normalizer": null,
  "pre_tokenizer": {
    "type": "Whitespace"
  },
  "post_processor": {
    "type": "TemplateProcessing",
    "single": [
      {
        "SpecialToken": {
          "id": "<cls>",
          "type_id": 0
        }
      },
      {
        "Sequence": {
          "id": "A",
          "type_id": 0
        }
      },
      {
        "SpecialToken": {
          "id": "<sep>",
          "type_id": 0
        }
      }
    ],
    "pair": [
      {
        "Sequence": {
          "id": "A",
          "type_id": 0
        }
      },
      {
        "Sequence": {
          "id": "B",
          "type_id": 1
        }
      }
    ],
    "special_tokens": {
      "<cls>": {
        "id": "<cls>",
        "ids": [
          2
        ],
        "tokens": [
          "<cls>"
        ]
      },
      "<sep>": {
        "id": "<sep>",
        "ids": [
          3
        ],
        "tokens": [
          "<sep>"
        ]
      }
    }
  },
  "decoder": {
    "type": "WordPiece",
    "prefix": "##",
    "cleanup": true
  },
  "model": {
    "type": "WordPiece",
    "unk_token": "<unk>",
    "continuing_subword_prefix": "##",
    "max_input_chars_per_word": 100,
    "vocab": {
      "<unk>": 0,
      "<pad>": 1,
      "<cls>": 2,
      "<sep>": 3,
      "<mask>": 4,
      "!": 5,
      "\"": 6,
      "%": 7,
      "&": 8,
      "'": 9,
      "(": 10,
      ")": 11,
      ",": 12,
      "-": 13,
      ".": 14,
      "/": 15,
      "0": 16,
      "1": 17,
      "2": 18,
      "3": 19,
      "4": 20,
      "5": 21,
      "6": 22,
      "7": 23,
      "8": 24,
      "9": 25,
      ":": 26,
      ";": 27,
      "?": 28,
      "A": 29,
      "B": 30,
      "C": 31,
      "D": 32,
      "E": 33,
      "F": 34,
      "G": 35,
      "H": 36,
      "I": 37,
      "J": 38,
      "K": 39,
      "L": 40,
      "M": 41,
      "N": 42,
      "O": 43,
      "P": 44,
      "Q": 45,
      "R": 46,
      "S": 47,
      "T": 48,
      "U": 49,
      "V": 50,
      "W": 51,
      "X": 52,
      "Y": 53,
      "Z": 54,
      "_": 55,
      "a": 56,
      "b": 57,
      "c": 58,
      "d": 59,
      "e": 60,
      "f": 61,
      "g": 62,
      "h": 63,
      "i": 64,
      "j": 65,
      "k": 66,
      "l": 67,
      "m": 68,
      "n": 69,
      "o": 70,
      "p": 71,
      "q": 72,
      "r": 73,
      "s": 74,
      "t": 75,
      "u": 76,
      "v": 77,
      "w": 78,
      "x": 79,
      "y": 80,
      "z": 81,
      "Â": 82,
      "Ê": 83,
      "Ð": 84,
      "Ó": 85,
      "Ö": 86,
      "à": 87,
      "á": 88,
      "â": 89,
      "ã": 90,
      "ä": 91,
      "å": 92,
      "è": 93,
      "ê": 94,
      "ë": 95,
      "ì": 96,
      "í": 97,
      "ï": 98,
      "ò": 99,
      "ó": 100,
      "ô": 101,
      "õ": 102,
      "ú": 103,
      "û": 104,
      "ý": 105,
      "Ă": 106,
      "ă": 107,
      "Đ": 108,
      "đ": 109,
      "Ĕ": 110,
      "ĕ": 111,
      "ě": 112,
      "ĩ": 113,
      "ĭ": 114,
      "ŏ": 115,
      "ũ": 116,
      "Ŭ": 117,
      "ŭ": 118,
      "Ơ": 119,
      "ơ": 120,
      "Ư": 121,
      "ư": 122,
      "̂": 123,
      "̆": 124,
      "̌": 125,
      "̱": 126,
      "ạ": 127,
      "ả": 128,
      "ấ": 129,
      "ầ": 130,
      "ậ": 131,
      "ắ": 132,
      "ẳ": 133,
      "ẵ": 134,
      "ặ": 135,
      "ẻ": 136,
      "ế": 137,
      "ề": 138,
      "ể": 139,
      "ễ": 140,
      "ệ": 141,
      "ỉ": 142,
      "ị": 143,
      "ọ": 144,
      "ố": 145,
      "ồ": 146,
      "ổ": 147,
      "ỗ": 148,
      "ộ": 149,
      "ớ": 150,
      "ờ": 151,
      "ở": 152,
      "ỡ": 153,
      "ợ": 154,
      "ụ": 155,
      "ủ": 156,
      "ứ": 157,
      "ừ": 158,
      "ử": 159,
      "Ữ": 160,
      "ữ": 161,
      "ự": 162,
      "ỳ": 163,
      "ỹ": 164,
      "–": 165,
      "—": 166,
      "’": 167,
      "“": 168,
      "”": 169,
      "…": 170,
      "##T": 171,
      "##u": 172,
      "##n": 173,
      "##g": 174,
      "##h": 175,
      "##e": 176,
      "##̆": 177,
      "##p": 178,
      "##ĕ": 179,
      "##S": 180,
      "##D": 181,
      "##y": 182,
      "##̂": 183,
      "##t": 184,
      "##ơ": 185,
      "##d": 186,
      "##r": 187,
      "##o": 188,
      "##3": 189,
      "##5": 190,
      "##ê": 191,
      "##ư": 192,
      "##i": 193,
      "##m": 194,
      "##a": 195,
      "##c": 196,
      "##k": 197,
      "##ŏ": 198,
      "##ă": 199,
      "##á": 200,
      "##l": 201,
      "##ô": 202,
      "##4": 203,
      "##9": 204,
      "##ứ": 205,
      "##ĭ": 206,
      "##ŭ": 207,
      "##6": 208,
      "##8": 209,
      "##ắ": 210,
      "##s": 211,
      "##ệ": 212,
      "##A": 213,
      "##ụ": 214,
      "##ạ": 215,
      "##X": 216,
      "##0": 217,
      "##̌": 218,
      "##â": 219,
      "##x": 220,
      "##N": 221,
      "##C": 222,
      "##b": 223,
      "##7": 224,
      "##ĩ": 225,
      "##j": 226,
      "##ấ": 227,
      "##H": 228,
      "##Q": 229,
      "##ờ": 230,
      "##M": 231,
      "##ả": 232,
      "##ợ": 233,
      "##2": 234,
      "##Ê": 235,
      "##ộ": 236,
      "##w": 237,
      "##z": 238,
      "##ự": 239,
      "##V": 240,
      "##I": 241,
      "##1": 242,
      "##G": 243,
      "##ế": 244,
      "##B": 245,
      "##ä": 246,
      "##û": 247,
      "##.": 248,
      "##à": 249,
      "##P": 250,
      "##K": 251,
      "##ú": 252,
      "##đ": 253,
      "##Đ": 254,
      "##L": 255,
      "##ề": 256,
      "##Â": 257,
      "##ố": 258,
      "##ớ": 259,
      "##å": 260,
      "##õ": 261,
      "##ò": 262,
      "##ï": 263,
      "##ủ": 264,
      "##ọ": 265,
      "##'": 266,
      "##ở": 267,
      "##)": 268,
      "##̱": 269,
      "##ầ": 270,
      "##,": 271,
      "##è": 272,
      "##ễ": 273,
      "##Z": 274,
      "##;": 275,
      "##ã": 276,
      "##í": 277,
      "##ể": 278,
      "##ũ": 279,
      "##_": 280,
      "##U": 281,
      "##ì": 282,
      "##q": 283,
      "##ặ": 284,
      "##ồ": 285,
      "##v": 286,
      "##ỉ": 287,
      "##”": 288,
      "##ẻ": 289,
      "##R": 290,
      "##O": 291,
      "##ị": 292,
      "##ó": 293,
      "##ổ": 294,
      "##Ó": 295,
      "##W": 296,
      "##ậ": 297,
      "##…": 298,
      "##ữ": 299,
      "##Y": 300,
      "##E": 301,
      "##\"": 302,
      "##ỡ": 303,
      "##/": 304,
      "##ě": 305,
      "##ử": 306,
      "##f": 307,
      "##ë": 308,
      "##F": 309,
      "##ỗ": 310,
      "##ừ": 311,
      "##ý": 312,
      "##ỳ": 313,
      "##Ĕ": 314,
      "##Ữ": 315,
      "##Ö": 316,
      "##:": 317,
      "##ẳ": 318,
      "##Ơ": 319,
      "##ỹ": 320,
      "##ẵ": 321,
      "##ng": 322,
      "##nh": 323,
      "tơ": 324,
      "pơ": 325,
      "##ơ̆": 326,
      "##ong": 327,
      "##dr": 328,
      "##inh": 329,
      "##ĕi": 330,
      "##iê": 331,
      "##drong": 332,
      "ch": 333,
      "tr": 334,
      "##ơn": 335,
      "tơdrong": 336,
      "th": 337,
      "##ăm": 338,
      "##ông": 339,
      "##ơng": 340,
      "##am": 341,
      "##im": 342,
      "kh": 343,
      "##an": 344,
      "##ch": 345,
      "##ang": 346,
      "##ung": 347,
      "pơm": 348,
      "rim": 349,
      "##oh": 350,
      "ng": 351,
      "##ai": 352,
      "kơ": 353,
      "adr": 354,
      "##eng": 355,
      "weng": 356,
      "jĭ": 357,
      "bă": 358,
      "ph": 359,
      "minh": 360,
      "##anh": 361,
      "##ơ̆u": 362,
      "jĭt": 363,
      "##uô": 364,
      "##ơ̆m": 365,
      "đơ̆": 366,
      "nă": 367,
      "lơ̆m": 368,
      "##lĕi": 369,
      "##ĭng": 370,
      "##ing": 371,
      "##ương": 372,
      "băl": 373,
      "##ao": 374,
      "##ăng": 375,
      "pơt": 376,
      "adrĭng": 377,
      "pơlĕi": 378,
      "##uh": 379,
      "##ŏk": 380,
      "##ơm": 381,
      "##oi": 382,
      "##ân": 383,
      "##ơnăm": 384,
      "ơĭ": 385,
      "ho": 386,
      "an": 387,
      "##ôi": 388,
      "##ŭn": 389,
      "sơnăm": 390,
      "đơ̆ng": 391,
      "sa": 392,
      "ăn": 393,
      "##ih": 394,
      "nh": 395,
      "hr": 396,
      "tơm": 397,
      "##uy": 398,
      "##iêng": 399,
      "##iêu": 400,
      "##ăn": 401,
      "đa": 402,
      "hriêng": 403,
      "ma": 404,
      "##iên": 405,
      "pơg": 406,
      "##ưng": 407,
      "sư": 408,
      "năm": 409,
      "Th": 410,
      "yŏk": 411,
      "##ơh": 412,
      "##bơ̆u": 413,
      "ngh": 414,
      "tŏ": 415,
      "##nam": 416,
      "uĕi": 417,
      "lơm": 418,
      "cham": 419,
      "dơn": 420,
      "tơg": 421,
      "##êch": 422,
      "ơbơ̆u": 423,
      "##on": 424,
      "tinh": 425,
      "tơp": 426,
      "##eh": 427,
      "long": 428,
      "##uôn": 429,
      "hnam": 430,
      "không": 431,
      "##ê̆": 432,
      "##ơnang": 433,
      "đĕi": 434,
      "Nă": 435,
      "pơj": 436,
      "năr": 437,
      "khan": 438,
      "at": 439,
      "hơ": 440,
      "##ôl": 441,
      "thu": 442,
      "noh": 443,
      "##ho": 444,
      "Yôl": 445,
      "Năr": 446,
      "đak": 447,
      "kông": 448,
      "hŭn": 449,
      "măng": 450,
      "##jung": 451,
      "##ơl": 452,
      "truh": 453,
      "##ên": 454,
      "##ŏng": 455,
      "##ưk": 456,
      "atung": 457,
      "tanh": 458,
      "ŭnh": 459,
      "Vinh": 460,
      "##ŭm": 461,
      "pơtho": 462,
      "hnh": 463,
      "##oan": 464,
      "pơđ": 465,
      "pơjing": 466,
      "##al": 467,
      "##ok": 468,
      "##ND": 469,
      "kon": 470,
      "##ul": 471,
      "jơh": 472,
      "trương": 473,
      "đơng": 474,
      "kơp": 475,
      "hnhĕi": 476,
      "##êng": 477,
      "bơng": 478,
      "pơnh": 479,
      "đơ̆i": 480,
      "##ơ̆p": 481,
      "##roh": 482,
      "tơgŭm": 483,
      "đông": 484,
      "##ê": 485,
      "al": 486,
      "ks": 487,
      "bơngai": 488,
      "pêng": 489,
      "UB": 490,
      "la": 491,
      "##ât": 492,
      "hok": 493,
      "pơđăm": 494,
      "##iêm": 495,
      "##iêp": 496,
      "##ô": 497,
      "bĭ": 498,
      "hoa": 499,
      "ksô": 500,
      "UBND": 501,
      "##loh": 502,
      "ku": 503,
      "đe": 504,
      "lư": 505,
      "##ĭnh": 506,
      "##ơg": 507,
      "đô": 508,
      "mă": 509,
      "Ch": 510,
      "20": 511,
      "đinh": 512,
      "hôi": 513,
      "Tr": 514,
      "na": 515,
      "ti": 516,
      "ngŏ": 517,
      "teh": 518,
      "wă": 519,
      "khĕi": 520,
      "##ol": 521,
      "gi": 522,
      "pơnhroh": 523,
      "nghiêp": 524,
      "boi": 525,
      "hl": 526,
      "##ră": 527,
      "gl": 528,
      "bok": 529,
      "jơnang": 530,
      "##̆t": 531,
      "sơ": 532,
      "lơ": 533,
      "rong": 534,
      "##um": 535,
      "ap": 536,
      "trong": 537,
      "pơgloh": 538,
      "##ring": 539,
      "phong": 540,
      "dr": 541,
      "puôn": 542,
      "##ri": 543,
      "kung": 544,
      "tơring": 545,
      "##ưt": 546,
      "tơjung": 547,
      "##ua": 548,
      "đưng": 549,
      "##ưm": 550,
      "tơmăn": 551,
      "tơh": 552,
      "inh": 553,
      "Jơnang": 554,
      "pơgơl": 555,
      "rŏng": 556,
      "Thanh": 557,
      "tơhng": 558,
      "sinh": 559,
      "##ŭk": 560,
      "##ĭ": 561,
      "Tơ": 562,
      "##ap": 563,
      "bô": 564,
      "##âm": 565,
      "Hôi": 566,
      "dơnŏ": 567,
      "apung": 568,
      "jên": 569,
      "yă": 570,
      "##ach": 571,
      "trinh": 572,
      "Sơ": 573,
      "tơhngam": 574,
      "piêu": 575,
      "pơtăm": 576,
      "ơ̆": 577,
      "thi": 578,
      "Ph": 579,
      "loi": 580,
      "yuô": 581,
      "nau": 582,
      "##ơt": 583,
      "Ng": 584,
      "tơx": 585,
      "bơ̆": 586,
      "drơ̆u": 587,
      "Đinh": 588,
      "chă": 589,
      "tơxĭnh": 590,
      "##êt": 591,
      "glong": 592,
      "##ŭ̆t": 593,
      "viên": 594,
      "##uât": 595,
      "tê": 596,
      "kuan": 597,
      "##ăt": 598,
      "Binh": 599,
      "anu": 600,
      "jang": 601,
      "anao": 602,
      "##̆ng": 603,
      "tơj": 604,
      "choh": 605,
      "##at": 606,
      "lơp": 607,
      "##ah": 608,
      "##̆i": 609,
      "alê̆": 610,
      "lêch": 611,
      "##uyên": 612,
      "tơgum": 613,
      "ơ̆u": 614,
      "hla": 615,
      "##ơ̆h": 616,
      "nông": 617,
      "kr": 618,
      "##uân": 619,
      "adrơ̆u": 620,
      "tơpơ̆h": 621,
      "nganh": 622,
      "201": 623,
      "ky": 624,
      "thoi": 625,
      "vĕi": 626,
      "kinh": 627,
      "nu": 628,
      "đăng": 629,
      "mi": 630,
      "ar": 631,
      "toan": 632,
      "kơ̆p": 633,
      "jư": 634,
      "ngo": 635,
      "ba": 636,
      "tư": 637,
      "kơpal": 638,
      "10": 639,
      "jê̆": 640,
      "chưk": 641,
      "adrêch": 642,
      "##̆n": 643,
      "Đang": 644,
      "văn": 645,
      "sach": 646,
      "san": 647,
      "##em": 648,
      "bơ̆l": 649,
      "đoan": 650,
      "##ôm": 651,
      "chi": 652,
      "kơjung": 653,
      "phân": 654,
      "arih": 655,
      "##ôk": 656,
      "bơ": 657,
      "Tơdrong": 658,
      "mai": 659,
      "##hr": 660,
      "tơmưt": 661,
      "##ơ̆ng": 662,
      "ban": 663,
      "hŏk": 664,
      "##hrĕi": 665,
      "##ăp": 666,
      "##êh": 667,
      "hanh": 668,
      "tich": 669,
      "phap": 670,
      "yăl": 671,
      "##gĕi": 672,
      "tơl": 673,
      "thanh": 674,
      "đĭ": 675,
      "Uĕi": 676,
      "bri": 677,
      "le": 678,
      "bi": 679,
      "đat": 680,
      "dêh": 681,
      "jơ": 682,
      "alưng": 683,
      "dơnuh": 684,
      "liên": 685,
      "unh": 686,
      "##uk": 687,
      "hơgĕi": 688,
      "kơd": 689,
      "mô": 690,
      "##ơĭ": 691,
      "Adr": 692,
      "xuôn": 693,
      "nhăt": 694,
      "pôk": 695,
      "##aih": 696,
      "hinh": 697,
      "Sa": 698,
      "##ĕch": 699,
      "##en": 700,
      "chu": 701,
      "thê": 702,
      "dơnol": 703,
      "yoh": 704,
      "du": 705,
      "lo": 706,
      "chơ̆": 707,
      "tri": 708,
      "in": 709,
      "Pơ": 710,
      "##ơgê": 711,
      "Nh": 712,
      "kang": 713,
      "##ăi": 714,
      "Rim": 715,
      "krao": 716,
      "##rông": 717,
      "##lih": 718,
      "ară": 719,
      "kư": 720,
      "ak": 721,
      "uy": 722,
      "ty": 723,
      "##et": 724,
      "##ưih": 725,
      "tô": 726,
      "tơmang": 727,
      "Bô": 728,
      "Kŭ̆t": 729,
      "adrol": 730,
      "nghê": 731,
      "ab": 732,
      "mĭ": 733,
      "##â": 734,
      "##uôĭ": 735,
      "tơplih": 736,
      "abri": 737,
      "##iê": 738,
      "##ô̆": 739,
      "bău": 740,
      "tĕch": 741,
      "chinh": 742,
      "trơ": 743,
      "kuy": 744,
      "Minh": 745,
      "quy": 746,
      "##êp": 747,
      "vu": 748,
      "Lơ̆m": 749,
      "bal": 750,
      "Gi": 751,
      "Văn": 752,
      "##âu": 753,
      "yư": 754,
      "##iêt": 755,
      "##jăp": 756,
      "##laih": 757,
      "thông": 758,
      "kơjăp": 759,
      "luât": 760,
      "dơt": 761,
      "##iê̆": 762,
      "dân": 763,
      "##ŭng": 764,
      "the": 765,
      "lê": 766,
      "202": 767,
      "nglaih": 768,
      "Nông": 769,
      "tiêu": 770,
      "Chu": 771,
      "nguôn": 772,
      "lương": 773,
      "tao": 774,
      "Kh": 775,
      "bơl": 776,
      "pr": 777,
      "xưm": 778,
      "am": 779,
      "sr": 780,
      "yua": 781,
      "măt": 782,
      "##ich": 783,
      "2019": 784,
      "liêm": 785,
      "##ĭnh": 786,
      "sơ̆": 787,
      "lưk": 788,
      "##it": 789,
      "khul": 790,
      "plĕi": 791,
      "đai": 792,
      "giă": 793,
      "##ak": 794,
      "nhân": 795,
      "kêt": 796,
      "nưih": 797,
      "trŏ": 798,
      "kl": 799,
      "kho": 800,
      "as": 801,
      "##ă": 802,
      "pơk": 803,
      "##ac": 804,
      "dơ": 805,
      "TT": 806,
      "tơpă": 807,
      "br": 808,
      "##om": 809,
      "Bơgê": 810,
      "nai": 811,
      "tơjul": 812,
      "##ĕi": 813,
      "nhiêm": 814,
      "oh": 815,
      "##uôt": 816,
      "mir": 817,
      "kơs": 818,
      "lơmo": 819,
      "kach": 820,
      "ly": 821,
      "Pơg": 822,
      "##ơd": 823,
      "đơn": 824,
      "##in": 825,
      "triêu": 826,
      "Pơt": 827,
      "cơ": 828,
      "##ech": 829,
      "sư̆": 830,
      "100": 831,
      "grông": 832,
      "pl": 833,
      "kơt": 834,
      "tơn": 835,
      "băt": 836,
      "Điêu": 837,
      "giao": 838,
      "kơdih": 839,
      "đô": 840,
      "tơ̆": 841,
      "sơng": 842,
      "nhŏng": 843,
      "loai": 844,
      "Nam": 845,
      "ahrĕi": 846,
      "ruôt": 847,
      "Bă": 848,
      "mưt": 849,
      "##il": 850,
      "Ngh": 851,
      "lang": 852,
      "thô": 853,
      "ha": 854,
      "glăi": 855,
      "sơngưm": 856,
      "thuy": 857,
      "khai": 858,
      "phai": 859,
      "pơnhôm": 860,
      "Pơm": 861,
      "2020": 862,
      "QĐ": 863,
      "##ĭn": 864,
      "thương": 865,
      "boh": 866,
      "Đai": 867,
      "Trung": 868,
      "tai": 869,
      "Adrĭng": 870,
      "yŭk": 871,
      "trân": 872,
      "Sơn": 873,
      "vi": 874,
      "##̆m": 875,
      "pran": 876,
      "chơ": 877,
      "ka": 878,
      "nghi": 879,
      "Kơ": 880,
      "chĭnh": 881,
      "thư": 882,
      "pơting": 883,
      "HĐ": 884,
      "lâm": 885,
      "tê̆": 886,
      "Truh": 887,
      "keh": 888,
      "tương": 889,
      "##au": 890,
      "Kăn": 891,
      "bơg": 892,
      "dĭ": 893,
      "kơng": 894,
      "pơtơm": 895,
      "Ahrĕi": 896,
      "##ep": 897,
      "##uôih": 898,
      "##ên": 899,
      "duh": 900,
      "xư": 901,
      "đu": 902,
      "vŭ": 903,
      "tơs": 904,
      "##ơ̆t": 905,
      "tin": 906,
      "duch": 907,
      "##ơ̆i": 908,
      "xem": 909,
      "sưt": 910,
      "bŏ": 911,
      "điêu": 912,
      "phĕi": 913,
      "Phŏ": 914,
      "Nhơn": 915,
      "##op": 916,
      "##ŏp": 917,
      "Ban": 918,
      "Bok": 919,
      "đê": 920,
      "HĐND": 921,
      "đuôĭ": 922,
      "##ăk": 923,
      "hoach": 924,
      "##đeh": 925,
      "kong": 926,
      "Ơĭ": 927,
      "ơu": 928,
      "trưk": 929,
      "Khul": 930,
      "Lơm": 931,
      "pơtơ̆p": 932,
      "hoat": 933,
      "công": 934,
      "hư": 935,
      "ling": 936,
      "bơgang": 937,
      "tơsĭ": 938,
      "trăm": 939,
      "pơđam": 940,
      "tŭn": 941,
      "##ei": 942,
      "##jo": 943,
      "Thu": 944,
      "pơjăng": 945,
      "bơdr": 946,
      "lich": 947,
      "##bră": 948,
      "Pơgơl": 949,
      "môi": 950,
      "chư": 951,
      "kơbră": 952,
      "đang": 953,
      "jơră": 954,
      "bu": 955,
      "kĭ": 956,
      "##Ên": 957,
      "tơpul": 958,
      "tơjroh": 959,
      "Giam": 960,
      "Hŭn": 961,
      "##ŏm": 962,
      "chương": 963,
      "thao": 964,
      "tŭk": 965,
      "kơpô": 966,
      "##̆a": 967,
      "jul": 968,
      "mih": 969,
      "sruôih": 970,
      "thôn": 971,
      "lơ̆p": 972,
      "''": 973,
      "Ho": 974,
      "binh": 975,
      "Sơnăm": 976,
      "##ơ̆n": 977,
      "kơsơ̆": 978,
      "jr": 979,
      "pơtêp": 980,
      "hrat": 981,
      "phô̆": 982,
      "kyê": 983,
      "jit": 984,
      "ken": 985,
      "đôi": 986,
      "kơpah": 987,
      "tơnap": 988,
      "dư": 989,
      "hi": 990,
      "pjo": 991,
      "yu": 992,
      "như": 993,
      "##ruh": 994,
      "Trương": 995,
      "akŏm": 996,
      "qua": 997,
      "##ân": 998,
      "Sư": 999,
      "tro": 1000,
      "pơgop": 1001,
      "Viêt": 1002,
      "##uôc": 1003,
      "kơn": 1004,
      "##ui": 1005,
      "trung": 1006,
      "đôk": 1007,
      "đao": 1008,
      "##TT": 1009,
      "tơt": 1010,
      "chŭn": 1011,
      "Thoi": 1012,
      "Tai": 1013,
      "Đưng": 1014,
      "ơk": 1015,
      "phơ̆ng": 1016,
      "kua": 1017,
      "An": 1018,
      "gô": 1019,
      "ninh": 1020,
      "să": 1021,
      "tâ": 1022,
      "qu": 1023,
      "phâm": 1024,
      "##ô̆": 1025,
      "Chi": 1026,
      "lơĭ": 1027,
      "bơdro": 1028,
      "Boi": 1029,
      "hương": 1030,
      "tông": 1031,
      "yưng": 1032,
      "##ot": 1033,
      "phê": 1034,
      "năng": 1035,
      "pơjao": 1036,
      "đi": 1037,
      "##ơu": 1038,
      "tơpơh": 1039,
      "jăng": 1040,
      "đĭnh": 1041,
      "##uch": 1042,
      "kĭa": 1043,
      "19": 1044,
      "Mĭ": 1045,
      "lai": 1046,
      "pơl": 1047,
      "hơp": 1048,
      "lech": 1049,
      "cô": 1050,
      "Đao": 1051,
      "đim": 1052,
      "Phong": 1053,
      "hlak": 1054,
      "##êr": 1055,
      "ngân": 1056,
      "##ông": 1057,
      "##ăn": 1058,
      "##drơ̆u": 1059,
      "drong": 1060,
      "ami": 1061,
      "khoang": 1062,
      "tơtam": 1063,
      "đêch": 1064,
      "trach": 1065,
      "adruh": 1066,
      "Pơtho": 1067,
      "biê": 1068,
      "phu": 1069,
      "nhŭng": 1070,
      "dang": 1071,
      "yơ": 1072,
      "##eu": 1073,
      "##ây": 1074,
      "giăo": 1075,
      "Đê": 1076,
      "akom": 1077,
      "Liên": 1078,
      "hô": 1079,
      "koan": 1080,
      "sem": 1081,
      "tiêm": 1082,
      "hoan": 1083,
      "dơ̆t": 1084,
      "hang": 1085,
      "ưng": 1086,
      "##dơĭ": 1087,
      "phat": 1088,
      "asêch": 1089,
      "tơme": 1090,
      "hơ̆p": 1091,
      "đon": 1092,
      "chuân": 1093,
      "Chương": 1094,
      "kŭ̆t": 1095,
      "păng": 1096,
      "Thông": 1097,
      "Chă": 1098,
      "lơng": 1099,
      "adrin": 1100,
      "băn": 1101,
      "##uô̆": 1102,
      "02": 1103,
      "Luât": 1104,
      "Quy": 1105,
      "jŭng": 1106,
      "kil": 1107,
      "yung": 1108,
      "thŭ": 1109,
      "Trong": 1110,
      "nơ̆u": 1111,
      "vĭ": 1112,
      "##ươ": 1113,
      "##NN": 1114,
      "Thương": 1115,
      "biêu": 1116,
      "sơh": 1117,
      "têch": 1118,
      "vân": 1119,
      "ương": 1120,
      "##ĭch": 1121,
      "dơning": 1122,
      "Ngŏ": 1123,
      "12": 1124,
      "Bĭ": 1125,
      "đăm": 1126,
      "##ê̆": 1127,
      "he": 1128,
      "tâm": 1129,
      "##ar": 1130,
      "giai": 1131,
      "Yă": 1132,
      "hĕi": 1133,
      "to": 1134,
      "##ĕt": 1135,
      "dơdrơ̆u": 1136,
      "di": 1137,
      "gơd": 1138,
      "đô̆ng": 1139,
      "quan": 1140,
      "Hô": 1141,
      "xa": 1142,
      "yuk": 1143,
      "chđeh": 1144,
      "thiên": 1145,
      "Yua": 1146,
      "jŭ̆t": 1147,
      "met": 1148,
      "##uônh": 1149,
      "dach": 1150,
      "hê": 1151,
      "mưk": 1152,
      "vê": 1153,
      "trŭn": 1154,
      "duc": 1155,
      "jrang": 1156,
      "Kon": 1157,
      "Tinh": 1158,
      "##ĕr": 1159,
      "adrech": 1160,
      "##uôi": 1161,
      "dơnuônh": 1162,
      "Adring": 1163,
      "Pơlĕi": 1164,
      "iơ̆u": 1165,
      "tu": 1166,
      "##er": 1167,
      "##ôp": 1168,
      "plĕi": 1169,
      "yĕr": 1170,
      "##nang": 1171,
      "##êm": 1172,
      "thâm": 1173,
      "kơl": 1174,
      "tơman": 1175,
      "tơmĕt": 1176,
      "nghê": 1177,
      "Kuy": 1178,
      "anh": 1179,
      "gr": 1180,
      "sĭn": 1181,
      "trang": 1182,
      "phi": 1183,
      "Nghi": 1184,
      "Jơd": 1185,
      "Kông": 1186,
      "huy": 1187,
      "kŭn": 1188,
      "ơkơ̆u": 1189,
      "Jơdnang": 1190,
      "hu": 1191,
      "mơ̆u": 1192,
      "tiên": 1193,
      "##âp": 1194,
      "thak": 1195,
      "pơkao": 1196,
      "01": 1197,
      "bơgê": 1198,
      "điên": 1199,
      "##ău": 1200,
      "phô": 1201,
      "pơgŏp": 1202,
      "##TTQ": 1203,
      "tâng": 1204,
      "yăng": 1205,
      "##êl": 1206,
      "##ĭt": 1207,
      "##II": 1208,
      "tra": 1209,
      "kơna": 1210,
      "đeh": 1211,
      "tiê̆": 1212,
      "tơk": 1213,
      "tham": 1214,
      "phương": 1215,
      "đunh": 1216,
      "Hoa": 1217,
      "Mai": 1218,
      "dêch": 1219,
      "##gam": 1220,
      "##re": 1221,
      "##HC": 1222,
      "##ơhn": 1223,
      "hơdơĭ": 1224,
      "Pơj": 1225,
      "khoa": 1226,
      "cư": 1227,
      "hy": 1228,
      "##ct": 1229,
      "Hnam": 1230,
      "Kim": 1231,
      "hiêu": 1232,
      "ranh": 1233,
      "kơdơ̆u": 1234,
      "pơkă": 1235,
      "TTg": 1236,
      "tơ̆k": 1237,
      "Nghĭ": 1238,
      "gơdai": 1239,
      "Jơh": 1240,
      "Pơl": 1241,
      "abơ̆u": 1242,
      "kê̆": 1243,
      "vât": 1244,
      "tơd": 1245,
      "Tơjung": 1246,
      "tơjr": 1247,
      "ngoai": 1248,
      "hưch": 1249,
      "sơhm": 1250,
      "hect": 1251,
      "hecta": 1252,
      "Tơg": 1253,
      "et": 1254,
      "sô": 1255,
      "Đĭ": 1256,
      "##oanh": 1257,
      "##imet": 1258,
      "anô̆": 1259,
      "Thuân": 1260,
      "thuât": 1261,
      "bra": 1262,
      "##ơhnar": 1263,
      "bo": 1264,
      "##ia": 1265,
      "phă": 1266,
      "11": 1267,
      "bao": 1268,
      "bưt": 1269,
      "jê": 1270,
      "điêm": 1271,
      "thưk": 1272,
      "##uyên": 1273,
      "kơpưng": 1274,
      "nă": 1275,
      "kưu": 1276,
      "bl": 1277,
      "gêr": 1278,
      "ro": 1279,
      "##̆k": 1280,
      "##da": 1281,
      "##ôgam": 1282,
      "chuyên": 1283,
      "chêp": 1284,
      "trât": 1285,
      "pham": 1286,
      "##oih": 1287,
      "đĕi": 1288,
      "##ent": 1289,
      "kilôgam": 1290,
      "('": 1291,
      "Thi": 1292,
      "năm": 1293,
      "biêk": 1294,
      "tơjrưm": 1295,
      "năr": 1296,
      "30": 1297,
      "BNN": 1298,
      "Bơhnar": 1299,
      "Lao": 1300,
      "xuât": 1301,
      "kuơ̆n": 1302,
      "cent": 1303,
      "hm": 1304,
      "iêl": 1305,
      "sô̆": 1306,
      "##ơp": 1307,
      "##ênh": 1308,
      "##HP": 1309,
      "ơ̆i": 1310,
      "bơ̆n": 1311,
      "tơ̆p": 1312,
      "centimet": 1313,
      "gưm": 1314,
      "tuk": 1315,
      "vư": 1316,
      "##TN": 1317,
      "Nguyên": 1318,
      "krong": 1319,
      "bơn": 1320,
      "jung": 1321,
      "tau": 1322,
      "##uang": 1323,
      "##id": 1324,
      "pơn": 1325,
      "tho": 1326,
      "tĭa": 1327,
      "jơrông": 1328,
      "bŏn": 1329,
      "##HCS": 1330,
      "Pơlŏk": 1331,
      "kăt": 1332,
      "khu": 1333,
      "nghia": 1334,
      "Tơgŭm": 1335,
      "Co": 1336,
      "CP": 1337,
      "vo": 1338,
      "ưu": 1339,
      "lơk": 1340,
      "môn": 1341,
      "vươn": 1342,
      "Lê": 1343,
      "Uy": 1344,
      "huyên": 1345,
      "quôc": 1346,
      "Đâu": 1347,
      "chruh": 1348,
      "Thê": 1349,
      "##ô̆i": 1350,
      "gia": 1351,
      "##ăo": 1352,
      "tơdăm": 1353,
      "),": 1354,
      "kiêm": 1355,
      "mưih": 1356,
      "moih": 1357,
      "quân": 1358,
      "##ĕnh": 1359,
      "##ăo": 1360,
      "##âÊn": 1361,
      "trĭ": 1362,
      "Bŏk": 1363,
      "Vĭt": 1364,
      "biê̆": 1365,
      "kiên": 1366,
      "tih": 1367,
      "##̆p": 1368,
      "##la": 1369,
      "chê": 1370,
      "trôm": 1371,
      "nguyên": 1372,
      "sưa": 1373,
      "##ôn": 1374,
      "Pơnh": 1375,
      "1000": 1376,
      "Kơp": 1377,
      "but": 1378,
      "NĐ": 1379,
      "ăn": 1380,
      "danh": 1381,
      "kơ̆u": 1382,
      "lưng": 1383,
      "meu": 1384,
      "yanh": 1385,
      "##ŏa": 1386,
      "##ơ̆k": 1387,
      "chưng": 1388,
      "ngu": 1389,
      "bơngot": 1390,
      "bak": 1391,
      "Nhŏng": 1392,
      "Jơ": 1393,
      "Jên": 1394,
      "Xuân": 1395,
      "hăm": 1396,
      "han": 1397,
      "hai": 1398,
      "jơn": 1399,
      "mương": 1400,
      "nan": 1401,
      "tiêp": 1402,
      "xơ": 1403,
      "yơh": 1404,
      "Đơ̆ng": 1405,
      "##ŭch": 1406,
      "##00": 1407,
      "##vid": 1408,
      "tơng": 1409,
      "##iê̆n": 1410,
      "hŏa": 1411,
      "quyêt": 1412,
      "đuuôĭ": 1413,
      "Lư": 1414,
      "Nôi": 1415,
      "cu": 1416,
      "dal": 1417,
      "liêu": 1418,
      "nôi": 1419,
      "rôp": 1420,
      "pơtruh": 1421,
      "đôc": 1422,
      "##iêu": 1423,
      "Covid": 1424,
      "Dơn": 1425,
      "hŏp": 1426,
      "kră": 1427,
      "##CB": 1428,
      "tơ̆ng": 1429,
      "hlŏ": 1430,
      "Ba": 1431,
      "Hơ": 1432,
      "Măng": 1433,
      "văn": 1434,
      "##ĕp": 1435,
      "nhêm": 1436,
      "ly̆": 1437,
      "Dr": 1438,
      "kŏ": 1439,
      "kêch": 1440,
      "chât": 1441,
      "##êt": 1442,
      "bĭa": 1443,
      "dơb": 1444,
      "Dơnŏ": 1445,
      "KH": 1446,
      "Qua": 1447,
      "Yam": 1448,
      "au": 1449,
      "suât": 1450,
      "Đĭnh": 1451,
      "##iê̆t": 1452,
      "đei": 1453,
      "lưu": 1454,
      "tia": 1455,
      "..": 1456,
      "HC": 1457,
      "Mi": 1458,
      "Ma": 1459,
      "bư": 1460,
      "bum": 1461,
      "bet": 1462,
      "dech": 1463,
      "gơn": 1464,
      "kông": 1465,
      "Đĕi": 1466,
      "khĕi": 1467,
      "phŭk": 1468,
      "mălĕi": 1469,
      "bơ̆k": 1470,
      "chưc": 1471,
      "15": 1472,
      "CCB": 1473,
      "Duch": 1474,
      "gloh": 1475,
      "yân": 1476,
      "Đơng": 1477,
      "##XH": 1478,
      "brư": 1479,
      "đôk": 1480,
      "##uô̆c": 1481,
      "hyoh": 1482,
      "sơhmanh": 1483,
      "Kr": 1484,
      "Pho": 1485,
      "kŭ": 1486,
      "tuyên": 1487,
      "tak": 1488,
      "khă": 1489,
      "khoan": 1490,
      "##ôk": 1491,
      "Tơp": 1492,
      "phun": 1493,
      "bơne": 1494,
      "HCM": 1495,
      "hăn": 1496,
      "uôi": 1497,
      "đăk": 1498,
      "##cin": 1499,
      "hli": 1500,
      "hiong": 1501,
      "##cine": 1502,
      "\",": 1503,
      "jan": 1504,
      "tuh": 1505,
      "vac": 1506,
      "đâu": 1507,
      "##gah": 1508,
      "kơm": 1509,
      "##uâ": 1510,
      "vaccine": 1511,
      "Kinh": 1512,
      "Mih": 1513,
      "gư": 1514,
      "roi": 1515,
      "so": 1516,
      "si": 1517,
      "yol": 1518,
      "chep": 1519,
      "tram": 1520,
      "ngŭn": 1521,
      "hô": 1522,
      "Phu": 1523,
      "uôil": 1524,
      "Long": 1525,
      "kanh": 1526,
      "kân": 1527,
      "lĕi": 1528,
      "luô": 1529,
      "mon": 1530,
      "mŭk": 1531,
      "ta": 1532,
      "##ưc": 1533,
      "##lo": 1534,
      "##VN": 1535,
      "truyên": 1536,
      "ngư": 1537,
      "nghiêm": 1538,
      "200": 1539,
      "chưa": 1540,
      "AÊn": 1541,
      "CT": 1542,
      "Kjung": 1543,
      "mĭnh": 1544,
      "Đông": 1545,
      "##̆o": 1546,
      "##ơi": 1547,
      "##bo": 1548,
      "chĭnh": 1549,
      "kơđeh": 1550,
      "hop": 1551,
      "nhem": 1552,
      "##âp": 1553,
      "Pơgloh": 1554,
      "##ươc": 1555,
      "Pơjing": 1556,
      "kê̆t": 1557,
      "##TNT": 1558,
      "%;": 1559,
      "05": 1560,
      "Hao": 1561,
      "Oh": 1562,
      "diên": 1563,
      "jing": 1564,
      "##ơk": 1565,
      "##KT": 1566,
      "chê̆": 1567,
      "chĕp": 1568,
      "pơtep": 1569,
      "Pơđ": 1570,
      "##iên": 1571,
      "Giao": 1572,
      "brơ̆u": 1573,
      "thô̆ng": 1574,
      "Kơpal": 1575,
      "KHKT": 1576,
      "./": 1577,
      "Công": 1578,
      "kê": 1579,
      "lĭch": 1580,
      "mang": 1581,
      "pah": 1582,
      "tĭnh": 1583,
      "yer": 1584,
      "##rŭ": 1585,
      "thơng": 1586,
      "thac": 1587,
      "nhiê": 1588,
      "atŭch": 1589,
      "UBM": 1590,
      "2018": 1591,
      "bơu": 1592,
      "amăn": 1593,
      "sriêng": 1594,
      "Pơting": 1595,
      "tiê̆p": 1596,
      "./.": 1597,
      "14": 1598,
      "Huy": 1599,
      "Tơ̆ng": 1600,
      "Yuô": 1601,
      "non": 1602,
      "tuy": 1603,
      "tô": 1604,
      "yơ̆i": 1605,
      "Đôi": 1606,
      "thê": 1607,
      "khĭ": 1608,
      "2025": 1609,
      "kơtơ̆ng": 1610,
      "Chănh": 1611,
      "huen": 1612,
      "gưi": 1613,
      "nhiê̆m": 1614,
      "UBMTTQ": 1615,
      "Mă": 1616,
      "Tây": 1617,
      "ach": 1618,
      "đŏk": 1619,
      "tru": 1620,
      "phang": 1621,
      "Tham": 1622,
      "hơbo": 1623,
      "hnhei": 1624,
      "sơđ": 1625,
      "apoh": 1626,
      "##iê̆h": 1627,
      "Kho": 1628,
      "NHCS": 1629,
      "Tư": 1630,
      "ji": 1631,
      "mâm": 1632,
      "muk": 1633,
      "nâu": 1634,
      "yê": 1635,
      "##ŏng": 1636,
      "##ơ̆l": 1637,
      "##drông": 1638,
      "nhân": 1639,
      "tơmo": 1640,
      "Nguôn": 1641,
      "têh": 1642,
      "2015": 1643,
      "bơb": 1644,
      "TTr": 1645,
      "Hoai": 1646,
      "kơmăng": 1647,
      "NHCSXH": 1648,
      "MTTQ": 1649,
      "bươ": 1650,
      "pă": 1651,
      "pit": 1652,
      "ring": 1653,
      "adring": 1654,
      "phĭ": 1655,
      "phŭ": 1656,
      "sat": 1657,
      "mac": 1658,
      "Chăm": 1659,
      "Ngân": 1660,
      "Giăo": 1661,
      "aseh": 1662,
      "kơtă": 1663,
      "chơđ": 1664,
      "soat": 1665,
      "sơđiêng": 1666,
      "bơbê": 1667,
      "canh": 1668,
      "dy": 1669,
      "gah": 1670,
      "ke": 1671,
      "lam": 1672,
      "sang": 1673,
      "tech": 1674,
      "Đoan": 1675,
      "##uih": 1676,
      "##̂u": 1677,
      "##ŭ̆n": 1678,
      "thiêt": 1679,
      "nghiê": 1680,
      "kum": 1681,
      "Adrol": 1682,
      "Tô": 1683,
      "gh": 1684,
      "tĭn": 1685,
      "yiên": 1686,
      "yoanh": 1687,
      "Điêu": 1688,
      "ơla": 1689,
      "pơ̆k": 1690,
      "phơ": 1691,
      "nghiên": 1692,
      "vŭ": 1693,
      "plênh": 1694,
      "kơtum": 1695,
      "Pơđam": 1696,
      "LHP": 1697,
      "niêm": 1698,
      "xac": 1699,
      "yêr": 1700,
      "##enh": 1701,
      "##âÊ": 1702,
      "chĭ": 1703,
      "Anu": 1704,
      "lơngơp": 1705,
      "hô̆i": 1706,
      "LHPN": 1707,
      "%,": 1708,
      "13": 1709,
      "24": 1710,
      "Bơng": 1711,
      "Biên": 1712,
      "Ha": 1713,
      "hŏa": 1714,
      "jên": 1715,
      "kăn": 1716,
      "kia": 1717,
      "tam": 1718,
      "vâÊn": 1719,
      "yang": 1720,
      "đam": 1721,
      "ơda": 1722,
      "băo": 1723,
      "##ê̆n": 1724,
      "ksê": 1725,
      "băo": 1726,
      "vuông": 1727,
      "klŏng": 1728,
      "chơk": 1729,
      "bưa": 1730,
      "Bơngai": 1731,
      "Diêu": 1732,
      "Yao": 1733,
      "ay": 1734,
      "cung": 1735,
      "duy": 1736,
      "găm": 1737,
      "kih": 1738,
      "rang": 1739,
      "wêch": 1740,
      "##hu": 1741,
      "##ĭm": 1742,
      "kham": 1743,
      "##iê̆n": 1744,
      "##iê̆u": 1745,
      "xư̆": 1746,
      "dyŏng": 1747,
      "Dơ": 1748,
      "Hiêp": 1749,
      "Quang": 1750,
      "cai": 1751,
      "dôm": 1752,
      "gơ̆n": 1753,
      "mơm": 1754,
      "rok": 1755,
      "su": 1756,
      "yân": 1757,
      "ơgah": 1758,
      "tơb": 1759,
      "chơ̆m": 1760,
      "khang": 1761,
      "phŏ": 1762,
      "Thinh": 1763,
      "##ô̆ng": 1764,
      "Tram": 1765,
      "pơlei": 1766,
      "Bao": 1767,
      "Vo": 1768,
      "dưng": 1769,
      "lao": 1770,
      "tăi": 1771,
      "wĕi": 1772,
      "yi": 1773,
      "yơĭ": 1774,
      "đo": 1775,
      "thiê̆t": 1776,
      "##ơngl": 1777,
      "khach": 1778,
      "ngoh": 1779,
      "nhât": 1780,
      "2017": 1781,
      "klak": 1782,
      "asong": 1783,
      "kơsĕ": 1784,
      "ơkơu": 1785,
      "biê̆n": 1786,
      "jơnŭm": 1787,
      "Huynh": 1788,
      "achom": 1789,
      "03": 1790,
      "Anh": 1791,
      "Teh": 1792,
      "THP": 1793,
      "Xây": 1794,
      "bŏk": 1795,
      "koh": 1796,
      "mong": 1797,
      "ne": 1798,
      "sil": 1799,
      "yao": 1800,
      "##ĕl": 1801,
      "thăng": 1802,
      "nhơn": 1803,
      "athu": 1804,
      "sơre": 1805,
      "kơdi": 1806,
      "pre": 1807,
      "##III": 1808,
      "Druch": 1809,
      "UBMTTQVN": 1810,
      "kumi": 1811,
      "mơmơ̆u": 1812,
      "THPT": 1813,
      "Ks": 1814,
      "Môi": 1815,
      "TU": 1816,
      "ada": 1817,
      "bê": 1818,
      "hiên": 1819,
      "kâp": 1820,
      "nươc": 1821,
      "soh": 1822,
      "sơm": 1823,
      "xu": 1824,
      "đum": 1825,
      "##long": 1826,
      "đăng": 1827,
      "măy": 1828,
      "chiu": 1829,
      "tơkan": 1830,
      "##âÊt": 1831,
      ");": 1832,
      "Bal": 1833,
      "Jĭ": 1834,
      "ad": 1835,
      "bĭ": 1836,
      "lă": 1837,
      "lơ̆i": 1838,
      "mư": 1839,
      "ĕi": 1840,
      "##ĕk": 1841,
      "khôi": 1842,
      "kơdr": 1843,
      "nho": 1844,
      "nâu": 1845,
      "apinh": 1846,
      "krau": 1847,
      "Tơpul": 1848,
      "##uâ̆t": 1849,
      "chơđong": 1850,
      "nghiê̆p": 1851,
      "ayô": 1852,
      "kơdiŏng": 1853,
      "16": 1854,
      "Mưk": 1855,
      "NQ": 1856,
      "TW": 1857,
      "Tơm": 1858,
      "Xêt": 1859,
      "cach": 1860,
      "dâ": 1861,
      "kuô̆c": 1862,
      "ra": 1863,
      "rac": 1864,
      "săng": 1865,
      "yương": 1866,
      "chum": 1867,
      "khuyên": 1868,
      "kheu": 1869,
      "tơmam": 1870,
      "hlău": 1871,
      "bôp": 1872,
      "Phân": 1873,
      "tươ̆ng": 1874,
      "##âm": 1875,
      "##ăm": 1876,
      "Pơnhroh": 1877,
      "tơngh": 1878,
      "27": 1879,
      "Boh": 1880,
      "Canh": 1881,
      "Glong": 1882,
      "My": 1883,
      "Yu": 1884,
      "Yi": 1885,
      "bŭ": 1886,
      "doanh": 1887,
      "kơ̆i": 1888,
      "kiê̆n": 1889,
      "mơu": 1890,
      "suôn": 1891,
      "ŭi": 1892,
      "##ĐT": 1893,
      "thĭ": 1894,
      "thôi": 1895,
      "thô̆ng": 1896,
      "băng": 1897,
      "hon": 1898,
      "nhơ̆t": 1899,
      "nghĭ": 1900,
      "ơ̆p": 1901,
      "kuyêt": 1902,
      "##ăp": 1903,
      "hưu": 1904,
      "##uô̆ch": 1905,
      "BNNP": 1906,
      "pơnŭ": 1907,
      "Pơnhôm": 1908,
      "Krao": 1909,
      "18": 1910,
      "25": 1911,
      "26": 1912,
      "Têt": 1913,
      "biên": 1914,
      "gĕl": 1915,
      "jao": 1916,
      "kŭk": 1917,
      "lŭk": 1918,
      "tân": 1919,
      "yam": 1920,
      "yai": 1921,
      "đan": 1922,
      "tranh": 1923,
      "thơĭ": 1924,
      "khê": 1925,
      "bơd": 1926,
      "tâÊn": 1927,
      "tuaih": 1928,
      "dơbưk": 1929,
      "luôch": 1930,
      "BNNPTNT": 1931,
      "35": 1932,
      "Bi": 1933,
      "Kê": 1934,
      "Oêng": 1935,
      "PT": 1936,
      "THCS": 1937,
      "bôi": 1938,
      "bô": 1939,
      "lâp": 1940,
      "nô": 1941,
      "oei": 1942,
      "riê̆h": 1943,
      "tap": 1944,
      "wal": 1945,
      "xêt": 1946,
      "yan": 1947,
      "đơ̆u": 1948,
      "đuôi": 1949,
      "##ro": 1950,
      "##ăng": 1951,
      "khŭ̆n": 1952,
      "nău": 1953,
      "nhi": 1954,
      "##ê̆t": 1955,
      "Phat": 1956,
      "Ngo": 1957,
      "kuyêt": 1958,
      "hiơt": 1959,
      "Pơjao": 1960,
      "17": 1961,
      "29": 1962,
      "59": 1963,
      "50": 1964,
      "Cat": 1965,
      "Ty": 1966,
      "Tuy": 1967,
      "cam": 1968,
      "kơ̆l": 1969,
      "lân": 1970,
      "lui": 1971,
      "luô̆ch": 1972,
      "mâu": 1973,
      "tac": 1974,
      "##uc": 1975,
      "##eb": 1976,
      "##ăl": 1977,
      "chê̆": 1978,
      "thông": 1979,
      "khô": 1980,
      "pơgĕi": 1981,
      "Thuy": 1982,
      "hơĭ": 1983,
      "aleh": 1984,
      "giam": 1985,
      "hlih": 1986,
      "tơhnglo": 1987,
      "thưc": 1988,
      "jơnum": 1989,
      "dơbuk": 1990,
      "duyêt": 1991,
      "PTD": 1992,
      "Kuang": 1993,
      "Kuô̆c": 1994,
      "Ling": 1995,
      "Năm": 1996,
      "Pôk": 1997,
      "bai": 1998,
      "cao": 1999,
      "dung": 2000,
      "kah": 2001,
      "pôk": 2002,
      "rĕnh": 2003,
      "tăo": 2004,
      "Đe": 2005,
      "đương": 2006,
      "##ŏn": 2007,
      "##st": 2008,
      "##YT": 2009,
      "pơd": 2010,
      "truyên": 2011,
      "phiê̆u": 2012,
      "nhŭ": 2013,
      "jơrŭ": 2014,
      "pra": 2015,
      "thoat": 2016,
      "Jơră": 2017,
      "jĭt": 2018,
      "tơnghiêt": 2019,
      "28": 2020,
      "Dư": 2021,
      "Mon": 2022,
      "Mŭk": 2023,
      "Quôc": 2024,
      "Tô": 2025,
      "Tơngl": 2026,
      "Vân": 2027,
      "gương": 2028,
      "kap": 2029,
      "luân": 2030,
      "liên": 2031,
      "mât": 2032,
      "mua": 2033,
      "pal": 2034,
      "sơ̆m": 2035,
      "tăng": 2036,
      "Đưc": 2037,
      "đich": 2038,
      "##ŭm": 2039,
      "##yơ": 2040,
      "chŭ": 2041,
      "chung": 2042,
      "thân": 2043,
      "thuôc": 2044,
      "khĭch": 2045,
      "kơu": 2046,
      "mă": 2047,
      "Thư": 2048,
      "##êng": 2049,
      "giơĭ": 2050,
      "mil": 2051,
      "jơdrông": 2052,
      "klui": 2053,
      "Băl": 2054,
      "bơdrŏng": 2055,
      "kĭch": 2056,
      "pơlai": 2057,
      "blung": 2058,
      "brư̆": 2059,
      "nôĭ": 2060,
      "Tơnglơ̆i": 2061,
      "04": 2062,
      "06": 2063,
      "000": 2064,
      "22": 2065,
      "At": 2066,
      "GD": 2067,
      "La": 2068,
      "Tông": 2069,
      "dĕk": 2070,
      "ja": 2071,
      "jưng": 2072,
      "ki": 2073,
      "kô": 2074,
      "kai": 2075,
      "kŭm": 2076,
      "mưng": 2077,
      "vei": 2078,
      "xe": 2079,
      "đŏng": 2080,
      "Ŭnh": 2081,
      "##lah": 2082,
      "tơlĕi": 2083,
      "chih": 2084,
      "chơh": 2085,
      "thai": 2086,
      "khâu": 2087,
      "phung": 2088,
      "atuch": 2089,
      "atŭm": 2090,
      "đôt": 2091,
      "Chuân": 2092,
      "Trân": 2093,
      "bia": 2094,
      "kư̆": 2095,
      "amem": 2096,
      "pơkau": 2097,
      "##omet": 2098,
      "Pơtăm": 2099,
      "kilomet": 2100,
      "Kuyêt": 2101,
      "hmŏng": 2102,
      "Mălĕi": 2103,
      "kapô": 2104,
      "chơhl": 2105,
      "AÂ": 2106,
      "BT": 2107,
      "Kê̆": 2108,
      "Văn": 2109,
      "ang": 2110,
      "câu": 2111,
      "dương": 2112,
      "gô": 2113,
      "lu": 2114,
      "luâ̆t": 2115,
      "mơn": 2116,
      "nĕ": 2117,
      "sung": 2118,
      "sŏk": 2119,
      "uôl": 2120,
      "yinh": 2121,
      "đê": 2122,
      "ơb": 2123,
      "##ơih": 2124,
      "##ăch": 2125,
      "##ĭu": 2126,
      "chô": 2127,
      "thŭn": 2128,
      "khung": 2129,
      "##uôch": 2130,
      "hom": 2131,
      "nghĭ": 2132,
      "atăk": 2133,
      "kơpăng": 2134,
      "alê": 2135,
      "Trŭn": 2136,
      "bôt": 2137,
      "2010": 2138,
      "dui": 2139,
      "lot": 2140,
      "asĕch": 2141,
      "thư̆": 2142,
      "tuc": 2143,
      "luô̆ng": 2144,
      "##rŭh": 2145,
      "xuôn": 2146,
      "):": 2147,
      "07": 2148,
      "40": 2149,
      "Du": 2150,
      "Hương": 2151,
      "Lương": 2152,
      "Oĕi": 2153,
      "hach": 2154,
      "kăi": 2155,
      "ruh": 2156,
      "tiê̆t": 2157,
      "đuk": 2158,
      "##TX": 2159,
      "##ơc": 2160,
      "##ăc": 2161,
      "##QS": 2162,
      "chơ̆p": 2163,
      "khŏa": 2164,
      "kơđ": 2165,
      "##uôk": 2166,
      "năng": 2167,
      "Pham": 2168,
      "kyal": 2169,
      "bich": 2170,
      "chuông": 2171,
      "akău": 2172,
      "amêm": 2173,
      "klenh": 2174,
      "kơsŏng": 2175,
      "sơhng": 2176,
      "cưa": 2177,
      "hmăng": 2178,
      "sơmah": 2179,
      "mơnat": 2180,
      "ơbơu": 2181,
      "%.": 2182,
      "37": 2183,
      "Bung": 2184,
      "Dich": 2185,
      "Inh": 2186,
      "Kơm": 2187,
      "Min": 2188,
      "Pêng": 2189,
      "Său": 2190,
      "Ta": 2191,
      "TB": 2192,
      "Tiêu": 2193,
      "bơ̆u": 2194,
      "bŏng": 2195,
      "dĭ": 2196,
      "dich": 2197,
      "hiê̆n": 2198,
      "kê̆": 2199,
      "lŭn": 2200,
      "nam": 2201,
      "pinh": 2202,
      "tăp": 2203,
      "tiê̆n": 2204,
      "vong": 2205,
      "xêp": 2206,
      "##oa": 2207,
      "##ưn": 2208,
      "##sơ̆": 2209,
      "##GD": 2210,
      "chrŭh": 2211,
      "trai": 2212,
      "thê̆": 2213,
      "ngai": 2214,
      "pha": 2215,
      "phô̆i": 2216,
      "pơtăm": 2217,
      "nhâ": 2218,
      "nhâp": 2219,
      "lac": 2220,
      "Trinh": 2221,
      "gian": 2222,
      "bơdrong": 2223,
      "triên": 2224,
      "##iêm": 2225,
      "đông": 2226,
      "Kơsơ̆": 2227,
      "Jơdrông": 2228,
      "2009": 2229,
      "chơke": 2230,
      "dâ̆t": 2231,
      "AÂn": 2232,
      "Kơmăng": 2233,
      "09": 2234,
      "08": 2235,
      "45": 2236,
      "60": 2237,
      "Ct": 2238,
      "Jư": 2239,
      "Kua": 2240,
      "Kăn": 2241,
      "Tam": 2242,
      "XI": 2243,
      "XIII": 2244,
      "huân": 2245,
      "mem": 2246,
      "mơĭ": 2247,
      "nŏ": 2248,
      "răp": 2249,
      "tang": 2250,
      "tep": 2251,
      "##ic": 2252,
      "pơnam": 2253,
      "che": 2254,
      "chiên": 2255,
      "trư": 2256,
      "truy": 2257,
      "phuk": 2258,
      "phuôĭ": 2259,
      "nhă": 2260,
      "lơmưn": 2261,
      "hleh": 2262,
      "sơb": 2263,
      "lơngơ̆u": 2264,
      "anhôm": 2265,
      "hut": 2266,
      "30a": 2267,
      "pơnil": 2268,
      "lơkah": 2269,
      "gơneh": 2270,
      "khăc": 2271,
      "CTr": 2272,
      "ghi": 2273,
      "PTDTNT": 2274,
      "##GDĐT": 2275,
      "Cty": 2276,
      "23": 2277,
      "31": 2278,
      "BC": 2279,
      "Cao": 2280,
      "Dang": 2281,
      "EC": 2282,
      "He": 2283,
      "Măt": 2284,
      "Puôn": 2285,
      "SNN": 2286,
      "TN": 2287,
      "Tuh": 2288,
      "Tân": 2289,
      "Zeb": 2290,
      "bô̆": 2291,
      "gơ": 2292,
      "hŏ": 2293,
      "kjung": 2294,
      "luyên": 2295,
      "nĕi": 2296,
      "pui": 2297,
      "pêng": 2298,
      "ung": 2299,
      "xuân": 2300,
      "xet": 2301,
      "yok": 2302,
      "ưh": 2303,
      "ươ̆k": 2304,
      "…)": 2305,
      "##̆u": 2306,
      "##ĕng": 2307,
      "##VQS": 2308,
      "chuôi": 2309,
      "chro": 2310,
      "trưc": 2311,
      "thiêu": 2312,
      "ngam": 2313,
      "adrang": 2314,
      "phô̆": 2315,
      "nhơ̆p": 2316,
      "nhiêt": 2317,
      "hơl": 2318,
      "##rin": 2319,
      "bô̆": 2320,
      "Phê": 2321,
      "tơja": 2322,
      "2016": 2323,
      "tơlak": 2324,
      "tôn": 2325,
      "kuyên": 2326,
      "2021": 2327,
      "klong": 2328,
      "hươ̆ng": 2329,
      "kơniê̆h": 2330,
      "grăng": 2331,
      "cưu": 2332,
      "rŏng": 2333,
      "tuyê̆n": 2334,
      "ghêp": 2335,
      "chŭah": 2336,
      "sơbŏ": 2337,
      "Zebu": 2338,
      ").": 2339,
      "500": 2340,
      "Bo": 2341,
      "CL": 2342,
      "Lơ̆p": 2343,
      "Wă": 2344,
      "Yang": 2345,
      "agĕi": 2346,
      "agah": 2347,
      "bung": 2348,
      "don": 2349,
      "ham": 2350,
      "kô": 2351,
      "kăo": 2352,
      "nao": 2353,
      "peh": 2354,
      "quyên": 2355,
      "sô̆": 2356,
      "tan": 2357,
      "vĭ": 2358,
      "ôm": 2359,
      "Đăng": 2360,
      "ươc": 2361,
      "##ru": 2362,
      "##LT": 2363,
      "##ngam": 2364,
      "trŭ": 2365,
      "thĭ": 2366,
      "khăk": 2367,
      "ngân": 2368,
      "phân": 2369,
      "##uôh": 2370,
      "nhĭm": 2371,
      "hrang": 2372,
      "tơplah": 2373,
      "##ali": 2374,
      "dơnŏ̆": 2375,
      "Phan": 2376,
      "chăl": 2377,
      "môt": 2378,
      "amăk": 2379,
      "klăn": 2380,
      "TTLT": 2381,
      "tơnui": 2382,
      "Nghĭ": 2383,
      "yŭng": 2384,
      "gôh": 2385,
      "Jơrông": 2386,
      "kơdrĭng": 2387,
      "CLB": 2388,
      "41": 2389,
      "55": 2390,
      "99": 2391,
      "Hai": 2392,
      "Kơt": 2393,
      "Kăt": 2394,
      "Lo": 2395,
      "Mô": 2396,
      "Pr": 2397,
      "Tiên": 2398,
      "Xac": 2399,
      "buh": 2400,
      "bêt": 2401,
      "buk": 2402,
      "bjo": 2403,
      "dih": 2404,
      "hao": 2405,
      "hâu": 2406,
      "kg": 2407,
      "kok": 2408,
      "kiê̆": 2409,
      "kiêm": 2410,
      "linh": 2411,
      "lih": 2412,
      "mo": 2413,
      "môn": 2414,
      "păk": 2415,
      "ren": 2416,
      "rơih": 2417,
      "sơn": 2418,
      "suk": 2419,
      "viên": 2420,
      "xi": 2421,
      "Đi": 2422,
      "điêu": 2423,
      "##unh": 2424,
      "##han": 2425,
      "##ĕ": 2426,
      "##eo": 2427,
      "tơyơ": 2428,
      "##drô": 2429,
      "chô̆": 2430,
      "chŭng": 2431,
      "khuân": 2432,
      "kơnh": 2433,
      "pho": 2434,
      "măng": 2435,
      "tơgưm": 2436,
      "##ê̆t": 2437,
      "hơnh": 2438,
      "thuân": 2439,
      "##ê̆n": 2440,
      "đen": 2441,
      "lươĭ": 2442,
      "sơdrô": 2443,
      "dră": 2444,
      "bôm": 2445,
      "Phi": 2446,
      "chuc": 2447,
      "Nhât": 2448,
      "TTYT": 2449,
      "kơtam": 2450,
      "tơ̆l": 2451,
      "Băo": 2452,
      "chơp": 2453,
      "lơngom": 2454,
      "grŭn": 2455,
      "thoang": 2456,
      "tơngl": 2457,
      "##uât": 2458,
      "Ksơ": 2459,
      "hŏnh": 2460,
      "34": 2461,
      "44": 2462,
      "Bui": 2463,
      "BGDĐT": 2464,
      "Dung": 2465,
      "Dêch": 2466,
      "Hô̆i": 2467,
      "Pl": 2468,
      "Ria": 2469,
      "Tơh": 2470,
      "XII": 2471,
      "Yan": 2472,
      "Yăo": 2473,
      "dŭk": 2474,
      "mơl": 2475,
      "pŭk": 2476,
      "rêch": 2477,
      "tông": 2478,
      "uơ̆i": 2479,
      "xen": 2480,
      "yŭ": 2481,
      "yưm": 2482,
      "Đunh": 2483,
      "ơn": 2484,
      "ươm": 2485,
      "##uan": 2486,
      "##gei": 2487,
      "##ed": 2488,
      "##per": 2489,
      "##ay": 2490,
      "triêt": 2491,
      "thong": 2492,
      "thŭk": 2493,
      "kơch": 2494,
      "phêp": 2495,
      "##uôl": 2496,
      "hoai": 2497,
      "tơgal": 2498,
      "hơgei": 2499,
      "thuôk": 2500,
      "##ôi": 2501,
      "đech": 2502,
      "Châu": 2503,
      "hlo": 2504,
      "##ĭu": 2505,
      "mik": 2506,
      "arä": 2507,
      "mĭn": 2508,
      "kuyê̆t": 2509,
      "yư̆": 2510,
      "Khai": 2511,
      "sra": 2512,
      "breh": 2513,
      "kơsep": 2514,
      "plenh": 2515,
      "hiơ̆t": 2516,
      "##uô̆k": 2517,
      "Drơ̆u": 2518,
      "Khoa": 2519,
      "Khoan": 2520,
      "Tơmăn": 2521,
      "BTC": 2522,
      "kơđoh": 2523,
      "hơnhuih": 2524,
      "Tơhngam": 2525,
      "\".": 2526,
      "72": 2527,
      "85": 2528,
      "80": 2529,
      "90": 2530,
      "Ap": 2531,
      "Bơ": 2532,
      "Hông": 2533,
      "Keh": 2534,
      "LH": 2535,
      "Păng": 2536,
      "Pre": 2537,
      "Să": 2538,
      "XV": 2539,
      "bloh": 2540,
      "biêt": 2541,
      "gơl": 2542,
      "hơn": 2543,
      "hung": 2544,
      "joh": 2545,
      "jơ̆u": 2546,
      "jương": 2547,
      "kơ̆m": 2548,
      "kĭn": 2549,
      "kali": 2550,
      "lô": 2551,
      "lanh": 2552,
      "liêt": 2553,
      "muc": 2554,
      "nang": 2555,
      "nôp": 2556,
      "săp": 2557,
      "tôi": 2558,
      "têt": 2559,
      "tâ": 2560,
      "tĭch": 2561,
      "tuôi": 2562,
      "tâp": 2563,
      "tăc": 2564,
      "Đô": 2565,
      "đĭ": 2566,
      "##un": 2567,
      "##ut": 2568,
      "##dơi": 2569,
      "##roi": 2570,
      "##ŏch": 2571,
      "##ŭt": 2572,
      "##âng": 2573,
      "##CL": 2574,
      "pơdr": 2575,
      "pơch": 2576,
      "pơang": 2577,
      "pơdơĭ": 2578,
      "trao": 2579,
      "thơn": 2580,
      "thăi": 2581,
      "thăng": 2582,
      "khuy": 2583,
      "ngang": 2584,
      "adrung": 2585,
      "phông": 2586,
      "nhung": 2587,
      "pơgal": 2588,
      "kuơk": 2589,
      "##ơgiêng": 2590,
      "hluôi": 2591,
      "Phươc": 2592,
      "Nha": 2593,
      "Nhiêm": 2594,
      "kơtăp": 2595,
      "hiơ̆": 2596,
      "pơlŏk": 2597,
      "lơngoh": 2598,
      "lơngơ̆p": 2599,
      "toăn": 2600,
      "sơhmêch": 2601,
      "bodơĭ": 2602,
      "...": 2603,
      "Kruô": 2604,
      "tơbưk": 2605,
      "mưĭ": 2606,
      "chôt": 2607,
      "nhâ̆n": 2608,
      "LHTN": 2609,
      "52": 2610,
      "70": 2611,
      "95": 2612,
      "96": 2613,
      "Bŏn": 2614,
      "Drin": 2615,
      "Hư": 2616,
      "Hung": 2617,
      "Hơĭ": 2618,
      "Kang": 2619,
      "Xư": 2620,
      "Xưm": 2621,
      "bênh": 2622,
      "hum": 2623,
      "jih": 2624,
      "ko": 2625,
      "kương": 2626,
      "kao": 2627,
      "kem": 2628,
      "kich": 2629,
      "kiê̆n": 2630,
      "mơk": 2631,
      "nil": 2632,
      "nô̆i": 2633,
      "tuân": 2634,
      "tê̆": 2635,
      "vinh": 2636,
      "vưk": 2637,
      "xit": 2638,
      "yo": 2639,
      "ĭch": 2640,
      "##TV": 2641,
      "##ek": 2642,
      "##ục": 2643,
      "##QH": 2644,
      "##ành": 2645,
      "##ính": 2646,
      "tơw": 2647,
      "pơs": 2648,
      "##iêh": 2649,
      "ching": 2650,
      "chiêu": 2651,
      "trĭ": 2652,
      "thĭch": 2653,
      "thơi": 2654,
      "thâm": 2655,
      "khư": 2656,
      "khơ̆u": 2657,
      "khao": 2658,
      "khuôĭ": 2659,
      "khơu": 2660,
      "ngô": 2661,
      "adron": 2662,
      "phơng": 2663,
      "phưk": 2664,
      "pơtơp": 2665,
      "anat": 2666,
      "đap": 2667,
      "đăm": 2668,
      "hơdơi": 2669,
      "đô̆k": 2670,
      "apăng": 2671,
      "Ngân": 2672,
      "kram": 2673,
      "ngot": 2674,
      "bar": 2675,
      "jơdr": 2676,
      "Giá": 2677,
      "Khu": 2678,
      "kleng": 2679,
      "pơku": 2680,
      "đôi": 2681,
      "tơ̆m": 2682,
      "jrơ̆u": 2683,
      "jrăng": 2684,
      "Tơplih": 2685,
      "yêu": 2686,
      "keo": 2687,
      "135": 2688,
      "đoăn": 2689,
      "TUV": 2690,
      "XVIII": 2691,
      "38": 2692,
      "49": 2693,
      "46": 2694,
      "75": 2695,
      "CN": 2696,
      "Hat": 2697,
      "Kơd": 2698,
      "Lang": 2699,
      "Lâm": 2700,
      "NVQS": 2701,
      "Quan": 2702,
      "ai": 2703,
      "ca": 2704,
      "dră": 2705,
      "dăch": 2706,
      "gam": 2707,
      "hn": 2708,
      "ii": 2709,
      "kă": 2710,
      "lơh": 2711,
      "nĕi": 2712,
      "nên": 2713,
      "pŭ": 2714,
      "ruôih": 2715,
      "tạ": 2716,
      "tŭ̆n": 2717,
      "vĭn": 2718,
      "xâm": 2719,
      "Đuôĭ": 2720,
      "đăt": 2721,
      "##uôn": 2722,
      "##rê": 2723,
      "##rong": 2724,
      "##ik": 2725,
      "##ôh": 2726,
      "##XD": 2727,
      "##HH": 2728,
      "chao": 2729,
      "chĭu": 2730,
      "phê": 2731,
      "phăi": 2732,
      "phâÊn": 2733,
      "nhâÊt": 2734,
      "đăo": 2735,
      "hnhĕi": 2736,
      "kŭ": 2737,
      "kuân": 2738,
      "kuê̆": 2739,
      "Chinh": 2740,
      "Chđeh": 2741,
      "Trang": 2742,
      "Truyên": 2743,
      "glang": 2744,
      "tơhnglaih": 2745,
      "Phap": 2746,
      "chăp": 2747,
      "lĕ": 2748,
      "akhan": 2749,
      "tôt": 2750,
      "yươ̆k": 2751,
      "Khĕi": 2752,
      "srơ̆p": 2753,
      "klang": 2754,
      "##ơdah": 2755,
      "Pơtơm": 2756,
      "plĕnh": 2757,
      "tơnŏ": 2758,
      "hăi": 2759,
      "Hoang": 2760,
      "đia": 2761,
      "##ươk": 2762,
      "Kuyêt": 2763,
      "grun": 2764,
      "nguôn": 2765,
      "##lor": 2766,
      "MTTQVN": 2767,
      "chơkep": 2768,
      "Ksô̆": 2769,
      "nghĭp": 2770,
      "anguôn": 2771,
      "sơhngeu": 2772,
      "chĕp": 2773,
      "TNHH": 2774,
      "hơleh": 2775,
      "Apung": 2776,
      "pơdriêu": 2777,
      "mơkai": 2778,
      "nilon": 2779,
      "Kơdih": 2780,
      "21": 2781,
      "33": 2782,
      "39": 2783,
      "36": 2784,
      "47": 2785,
      "53": 2786,
      "74": 2787,
      "92": 2788,
      "Bong": 2789,
      "Bê̆": 2790,
      "Băo": 2791,
      "Bơ̆l": 2792,
      "BXD": 2793,
      "Hok": 2794,
      "HTX": 2795,
      "KT": 2796,
      "Kung": 2797,
      "PC": 2798,
      "Su": 2799,
      "Sŏk": 2800,
      "TC": 2801,
      "Ure": 2802,
      "Vŭ": 2803,
      "VN": 2804,
      "Viên": 2805,
      "ao": 2806,
      "bê̆n": 2807,
      "cân": 2808,
      "deh": 2809,
      "dŭch": 2810,
      "go": 2811,
      "hơ̆u": 2812,
      "hê̆": 2813,
      "lĭ": 2814,
      "lê̆": 2815,
      "lăp": 2816,
      "lêh": 2817,
      "mu": 2818,
      "muih": 2819,
      "nư": 2820,
      "pul": 2821,
      "ram": 2822,
      "soan": 2823,
      "sơgiêng": 2824,
      "tĭu": 2825,
      "tuôch": 2826,
      "vai": 2827,
      "vê̆t": 2828,
      "xây": 2829,
      "xre": 2830,
      "Đit": 2831,
      "đoh": 2832,
      "đâm": 2833,
      "đơĭ": 2834,
      "đŏn": 2835,
      "##us": 2836,
      "##ĕm": 2837,
      "##yung": 2838,
      "##rĕ": 2839,
      "##ist": 2840,
      "##m3": 2841,
      "##ôn": 2842,
      "##LS": 2843,
      "##ngot": 2844,
      "pơngot": 2845,
      "##iêl": 2846,
      "chuyên": 2847,
      "thuôk": 2848,
      "khĕ": 2849,
      "khich": 2850,
      "kơk": 2851,
      "nha": 2852,
      "nhanh": 2853,
      "tơgêl": 2854,
      "##ê̆ch": 2855,
      "atŏng": 2856,
      "nap": 2857,
      "2013": 2858,
      "miên": 2859,
      "dunh": 2860,
      "lêm": 2861,
      "Khĕi": 2862,
      "##ăk": 2863,
      "thươ̆k": 2864,
      "đuô̆i": 2865,
      "nhưa": 2866,
      "tâp": 2867,
      "gơdung": 2868,
      "anhao": 2869,
      "groi": 2870,
      "huâÊn": 2871,
      "hyôk": 2872,
      "bưn": 2873,
      "phŭt": 2874,
      "tơbla": 2875,
      "sơmat": 2876,
      "mưu": 2877,
      "Tơme": 2878,
      "GDTX": 2879,
      "TBLS": 2880,
      "name": 2881,
      "tơnglơ̆i": 2882,
      "yŏk": 2883,
      "48": 2884,
      "58": 2885,
      "63": 2886,
      "65": 2887,
      "89": 2888,
      "Bơg": 2889,
      "Bak": 2890,
      "Bia": 2891,
      "Dôm": 2892,
      "Hưng": 2893,
      "IV": 2894,
      "Jê̆": 2895,
      "Kŭn": 2896,
      "KHC": 2897,
      "Lê": 2898,
      "M2": 2899,
      "Nĕ": 2900,
      "NP": 2901,
      "Nai": 2902,
      "Rong": 2903,
      "ST": 2904,
      "Tu": 2905,
      "XH": 2906,
      "Yư": 2907,
      "Yơĭ": 2908,
      "ah": 2909,
      "bĕnh": 2910,
      "cm": 2911,
      "căp": 2912,
      "dục": 2913,
      "hiê": 2914,
      "it": 2915,
      "kĭnh": 2916,
      "kuôc": 2917,
      "kêt": 2918,
      "kuôk": 2919,
      "lĭn": 2920,
      "lĕp": 2921,
      "luât": 2922,
      "mơ": 2923,
      "man": 2924,
      "măn": 2925,
      "muôĭ": 2926,
      "meo": 2927,
      "nơm": 2928,
      "nơĭ": 2929,
      "po": 2930,
      "pôm": 2931,
      "puih": 2932,
      "rôi": 2933,
      "siêu": 2934,
      "te": 2935,
      "tĭ": 2936,
      "tiêt": 2937,
      "tăk": 2938,
      "xo": 2939,
      "yŏng": 2940,
      "yêt": 2941,
      "ân": 2942,
      "ăng": 2943,
      "ĐT": 2944,
      "ĐB": 2945,
      "Đơn": 2946,
      "Đak": 2947,
      "đên": 2948,
      "Ư̆": 2949,
      "##gh": 2950,
      "##m2": 2951,
      "##ôch": 2952,
      "##bưk": 2953,
      "##như": 2954,
      "chon": 2955,
      "châp": 2956,
      "chính": 2957,
      "thang": 2958,
      "thuô̆k": 2959,
      "khi": 2960,
      "khŏ": 2961,
      "khơĭ": 2962,
      "ngâm": 2963,
      "phao": 2964,
      "phĭ": 2965,
      "nhan": 2966,
      "hrap": 2967,
      "mah": 2968,
      "may": 2969,
      "mast": 2970,
      "kơpaih": 2971,
      "##êu": 2972,
      "lach": 2973,
      "Chuyên": 2974,
      "Chĭnh": 2975,
      "hlôch": 2976,
      "bônh": 2977,
      "Phương": 2978,
      "Phơ̆ng": 2979,
      "2014": 2980,
      "2011": 2981,
      "ngŏ": 2982,
      "tư̆": 2983,
      "tư̆u": 2984,
      "Giă": 2985,
      "bơla": 2986,
      "srôp": 2987,
      "klŏk": 2988,
      "khoanh": 2989,
      "khŏa": 2990,
      "Pơtơ̆p": 2991,
      "tơnơm": 2992,
      "đô̆": 2993,
      "hiŏng": 2994,
      "Sưa": 2995,
      "trŏ": 2996,
      "quet": 2997,
      "pơlok": 2998,
      "##ê̆u": 2999,
      "tuơ̆n": 3000,
      "Tơgum": 3001,
      "blŏk": 3002,
      "300": 3003,
      "suâÊt": 3004,
      "Ngoai": 3005,
      "chơhlŭng": 3006,
      "sơhngơ̆m": 3007,
      "mơlung": 3008,
      "pơchi": 3009,
      "...)": 3010,
      "Giáo": 3011,
      "PCTT": 3012,
      "KHCN": 3013,
      "NPK": 3014,
      "ĐBQH": 3015,
      "##ght": 3016,
      "master": 3017,
      "\"…": 3018,
      "400": 3019,
      "62": 3020,
      "86": 3021,
      "94": 3022,
      "98": 3023,
      "Be": 3024,
      "BYT": 3025,
      "Cu": 3026,
      "Gô": 3027,
      "Grông": 3028,
      "HD": 3029,
      "Jr": 3030,
      "Ku": 3031,
      "K8": 3032,
      "KM": 3033,
      "Kơ̆p": 3034,
      "Lai": 3035,
      "QL": 3036,
      "Quân": 3037,
      "TP": 3038,
      "Tung": 3039,
      "Toa": 3040,
      "Vu": 3041,
      "Vong": 3042,
      "WP": 3043,
      "XX": 3044,
      "Yŏk": 3045,
      "bom": 3046,
      "căo": 3047,
      "diêu": 3048,
      "dơg": 3049,
      "gŏk": 3050,
      "hông": 3051,
      "hiêm": 3052,
      "jăl": 3053,
      "km": 3054,
      "kot": 3055,
      "kâp": 3056,
      "lit": 3057,
      "oĕi": 3058,
      "puôn": 3059,
      "rơdah": 3060,
      "sao": 3061,
      "sră": 3062,
      "tŭ": 3063,
      "tuôn": 3064,
      "tôm": 3065,
      "van": 3066,
      "xŭk": 3067,
      "xuyên": 3068,
      "ya": 3069,
      "yăo": 3070,
      "âm": 3071,
      "êt": 3072,
      "ôn": 3073,
      "Ăn": 3074,
      "Điê": 3075,
      "Đim": 3076,
      "Điêm": 3077,
      "ơnh": 3078,
      "##ươ̆k": 3079,
      "##is": 3080,
      "##iong": 3081,
      "##kg": 3082,
      "##lŏ": 3083,
      "##ôt": 3084,
      "##ŭp": 3085,
      "##sit": 3086,
      "##NV": 3087,
      "##Êng": 3088,
      "##ào": 3089,
      "##ều": 3090,
      "tơroi": 3091,
      "pơh": 3092,
      "chơn": 3093,
      "chiê̆u": 3094,
      "châÊt": 3095,
      "chuôh": 3096,
      "trưng": 3097,
      "trôk": 3098,
      "##amin": 3099,
      "khêng": 3100,
      "ngơ̆": 3101,
      "ngach": 3102,
      "phe": 3103,
      "nhơng": 3104,
      "nhơ̆ng": 3105,
      "mat": 3106,
      "Thơng": 3107,
      "Thưk": 3108,
      "Thê": 3109,
      "tơpanh": 3110,
      "tơpăt": 3111,
      "atơ̆u": 3112,
      "atơ̆t": 3113,
      "pơnhơm": 3114,
      "##êh": 3115,
      "along": 3116,
      "kse": 3117,
      "lak": 3118,
      "##ôh": 3119,
      "##ôch": 3120,
      "lưc": 3121,
      "nat": 3122,
      "giang": 3123,
      "giac": 3124,
      "hlu": 3125,
      "tơhyung": 3126,
      "##ĭa": 3127,
      "Phai": 3128,
      "Phươk": 3129,
      "Phươ̆k": 3130,
      "bơ̆i": 3131,
      "chăy": 3132,
      "tơjŭng": 3133,
      "bơih": 3134,
      "jơdrơ̆u": 3135,
      "kơdŭ": 3136,
      "Adrêch": 3137,
      "lênh": 3138,
      "amn": 3139,
      "klăm": 3140,
      "pla": 3141,
      "tơnat": 3142,
      "Băc": 3143,
      "đuơĭ": 3144,
      "tơsi": 3145,
      "hiăn": 3146,
      "kơnĕ": 3147,
      "Anao": 3148,
      "quen": 3149,
      "pơla": 3150,
      "tơkul": 3151,
      "Pơjăng": 3152,
      "tơdiong": 3153,
      "hming": 3154,
      "Kơpô": 3155,
      "gơnơm": 3156,
      "Krong": 3157,
      "Pơđăm": 3158,
      "nghiêp": 3159,
      "sut": 3160,
      "neo": 3161,
      "adĭng": 3162,
      "adal": 3163,
      "##ĐTB": 3164,
      "PTDT": 3165,
      "GDNN": 3166,
      "kôn": 3167,
      "chơhlung": 3168,
      "BTP": 3169,
      "Pran": 3170,
      "tâng": 3171,
      "tạo": 3172,
      "Điêk": 3173,
      "ơnhơng": 3174,
      "32": 3175,
      "68": 3176,
      "84": 3177,
      "Al": 3178,
      "Bô̆": 3179,
      "Cư": 3180,
      "DT": 3181,
      "Dân": 3182,
      "Gơn": 3183,
      "Hu": 3184,
      "Hanh": 3185,
      "Hơ̆p": 3186,
      "Huyên": 3187,
      "In": 3188,
      "Kl": 3189,
      "K6": 3190,
      "Kương": 3191,
      "Kuôc": 3192,
      "Ly": 3193,
      "Liêm": 3194,
      "Let": 3195,
      "Mâm": 3196,
      "Nô̆i": 3197,
      "Pă": 3198,
      "Plĕi": 3199,
      "QH": 3200,
      "Ruôih": 3201,
      "San": 3202,
      "Sưt": 3203,
      "Tơ̆m": 3204,
      "Tât": 3205,
      "Tuyên": 3206,
      "Tuân": 3207,
      "Tăi": 3208,
      "Tĭa": 3209,
      "Web": 3210,
      "Yân": 3211,
      "Yok": 3212,
      "Yem": 3213,
      "bông": 3214,
      "bĕng": 3215,
      "dự": 3216,
      "gal": 3217,
      "gen": 3218,
      "giêh": 3219,
      "hơm": 3220,
      "hoi": 3221,
      "hơh": 3222,
      "hĭn": 3223,
      "hành": 3224,
      "ich": 3225,
      "jăn": 3226,
      "jŭk": 3227,
      "jăk": 3228,
      "kô̆": 3229,
      "kăl": 3230,
      "măm": 3231,
      "muh": 3232,
      "mŏk": 3233,
      "mêm": 3234,
      "nĭm": 3235,
      "pung": 3236,
      "pưng": 3237,
      "pră": 3238,
      "pĭt": 3239,
      "puôl": 3240,
      "rui": 3241,
      "rây": 3242,
      "số": 3243,
      "sương": 3244,
      "suy": 3245,
      "sri": 3246,
      "suang": 3247,
      "tong": 3248,
      "tung": 3249,
      "tưng": 3250,
      "urê": 3251,
      "wih": 3252,
      "xung": 3253,
      "xăng": 3254,
      "yuy": 3255,
      "yâng": 3256,
      "Öu": 3257,
      "Điên": 3258,
      "Đên": 3259,
      "Đưk": 3260,
      "đố": 3261,
      "##pe": 3262,
      "##tơ": 3263,
      "##ra": 3264,
      "##ran": 3265,
      "##ron": 3266,
      "##rah": 3267,
      "##ŏ": 3268,
      "##êu": 3269,
      "##ăi": 3270,
      "##ăih": 3271,
      "##lăih": 3272,
      "##A1": 3273,
      "##NVQS": 3274,
      "##ời": 3275,
      "##ới": 3276,
      "##ình": 3277,
      "##ịnh": 3278,
      "##dron": 3279,
      "chŭk": 3280,
      "chau": 3281,
      "chơngl": 3282,
      "tron": 3283,
      "trom": 3284,
      "khe": 3285,
      "jĭÊng": 3286,
      "băk": 3287,
      "phim": 3288,
      "phan": 3289,
      "phôi": 3290,
      "phiêu": 3291,
      "phŏng": 3292,
      "nham": 3293,
      "nhom": 3294,
      "tơmoi": 3295,
      "đau": 3296,
      "đâu": 3297,
      "măt": 3298,
      "pơgơp": 3299,
      "Thĭ": 3300,
      "Thŭ": 3301,
      "Thơĭ": 3302,
      "tơpu": 3303,
      "tơpal": 3304,
      "atol": 3305,
      "pơđăm": 3306,
      "##êp": 3307,
      "ksơ̆": 3308,
      "ksô̆": 3309,
      "kue": 3310,
      "kueng": 3311,
      "đôm": 3312,
      "đô̆i": 3313,
      "đô̆m": 3314,
      "Chă": 3315,
      "Chau": 3316,
      "Trŭ": 3317,
      "tiêu": 3318,
      "giơ": 3319,
      "giap": 3320,
      "giâm": 3321,
      "hlêh": 3322,
      "lơnhư": 3323,
      "Ngŭn": 3324,
      "tơxinh": 3325,
      "kruôĭ": 3326,
      "2012": 3327,
      "ky̆": 3328,
      "ară": 3329,
      "tơlĕi": 3330,
      "lep": 3331,
      "lĕi": 3332,
      "jơru": 3333,
      "Nhŏm": 3334,
      "akĕ": 3335,
      "akanh": 3336,
      "##iêt": 3337,
      "Giai": 3338,
      "yư̆m": 3339,
      "klo": 3340,
      "asech": 3341,
      "asĕng": 3342,
      "pơkŭ": 3343,
      "brai": 3344,
      "brơu": 3345,
      "Pơgŏp": 3346,
      "Pơtêp": 3347,
      "plach": 3348,
      "tơnuh": 3349,
      "Nghiên": 3350,
      "hay": 3351,
      "viru": 3352,
      "thưa": 3353,
      "HĐNVQS": 3354,
      "bơgloh": 3355,
      "jru": 3356,
      "yuc": 3357,
      "hôn": 3358,
      "toăn": 3359,
      "Kuyê̆t": 3360,
      "tơkưng": 3361,
      "Pơlok": 3362,
      "pơnal": 3363,
      "chêo": 3364,
      "150": 3365,
      "Phun": 3366,
      "CTĐ": 3367,
      "chơđah": 3368,
      "chĭu": 3369,
      "tamo": 3370,
      "xuơn": 3371,
      "kơdră": 3372,
      "milimet": 3373,
      "Atuch": 3374,
      "Atŭch": 3375,
      "chôh": 3376,
      "BCTT": 3377,
      "gơdron": 3378,
      "Prôm": 3379,
      "##ĕch": 3380,
      "Plĕi": 3381,
      "hơnong": 3382,
      "Hưu": 3383,
      "jơdră": 3384,
      "##lorua": 3385,
      "polĕi": 3386,
      "kotơ̆ng": 3387,
      "##site": 3388,
      "hluôi": 3389,
      "amne": 3390,
      "sriêng": 3391,
      "##rona": 3392,
      "43": 3393,
      "54": 3394,
      "51": 3395,
      "600": 3396,
      "88": 3397,
      "97": 3398,
      "91": 3399,
      "Bơh": 3400,
      "Blo": 3401,
      "Bê̆n": 3402,
      "BNV": 3403,
      "Cơ": 3404,
      "CH": 3405,
      "Car": 3406,
      "Cuc": 3407,
      "Go": 3408,
      "Gro": 3409,
      "Hm": 3410,
      "Han": 3411,
      "Hŏk": 3412,
      "Hŏp": 3413,
      "Hlŏ": 3414,
      "II": 3415,
      "Kam": 3416,
      "Kanh": 3417,
      "Kiên": 3418,
      "Kŭm": 3419,
      "Kiêm": 3420,
      "KTN": 3421,
      "KCL": 3422,
      "LĐ": 3423,
      "Lui": 3424,
      "Luât": 3425,
      "M9": 3426,
      "Ruôt": 3427,
      "Sở": 3428,
      "Sơ̆": 3429,
      "Sinh": 3430,
      "Sil": 3431,
      "Tŭn": 3432,
      "Xet": 3433,
      "Yanh": 3434,
      "Yoanh": 3435,
      "bĕ": 3436,
      "bang": 3437,
      "bih": 3438,
      "bon": 3439,
      "bach": 3440,
      "bơt": 3441,
      "cơng": 3442,
      "cô̆": 3443,
      "câp": 3444,
      "căo": 3445,
      "clorua": 3446,
      "dinh": 3447,
      "diê̆": 3448,
      "dil": 3449,
      "gĕi": 3450,
      "goh": 3451,
      "hong": 3452,
      "hiêng": 3453,
      "hui": 3454,
      "ju": 3455,
      "jong": 3456,
      "jơm": 3457,
      "jak": 3458,
      "jơ̆n": 3459,
      "kĕi": 3460,
      "kam": 3461,
      "kưt": 3462,
      "kĭ": 3463,
      "kăp": 3464,
      "kênh": 3465,
      "kăo": 3466,
      "kăch": 3467,
      "koa": 3468,
      "lĭu": 3469,
      "mung": 3470,
      "niên": 3471,
      "pe": 3472,
      "pang": 3473,
      "ploh": 3474,
      "păng": 3475,
      "rô": 3476,
      "rach": 3477,
      "răp": 3478,
      "rơĭ": 3479,
      "ruô̆k": 3480,
      "rut": 3481,
      "sân": 3482,
      "sum": 3483,
      "tuôĭ": 3484,
      "uch": 3485,
      "uôh": 3486,
      "ve": 3487,
      "và": 3488,
      "vă": 3489,
      "vê̆": 3490,
      "xă": 3491,
      "xĭ": 3492,
      "xuâ̆t": 3493,
      "xêp": 3494,
      "yơ̆u": 3495,
      "yê̆": 3496,
      "yôm": 3497,
      "yă": 3498,
      "yăp": 3499,
      "án": 3500,
      "âÊn": 3501,
      "Đơ̆i": 3502,
      "Đăk": 3503,
      "đơ": 3504,
      "ư̆ng": 3505,
      "##gist": 3506,
      "##hơ": 3507,
      "##hê": 3508,
      "##pa": 3509,
      "##tam": 3510,
      "##ogam": 3511,
      "##ư̆ng": 3512,
      "##aĭ": 3513,
      "##co": 3514,
      "##kă": 3515,
      "##ắt": 3516,
      "##ệu": 3517,
      "##âk": 3518,
      "##CS": 3519,
      "##ội": 3520,
      "##ộng": 3521,
      "##ến": 3522,
      "##ần": 3523,
      "##ồng": 3524,
      "tơnh": 3525,
      "pơuh": 3526,
      "chỉ": 3527,
      "chanh": 3528,
      "chua": 3529,
      "trŭk": 3530,
      "trăp": 3531,
      "thơ̆u": 3532,
      "thuôi": 3533,
      "thay": 3534,
      "thành": 3535,
      "khinh": 3536,
      "khuôn": 3537,
      "khơl": 3538,
      "ngoi": 3539,
      "ngoan": 3540,
      "phô": 3541,
      "đơ̆k": 3542,
      "anung": 3543,
      "nhong": 3544,
      "hriê": 3545,
      "tơmăng": 3546,
      "sưc": 3547,
      "The": 3548,
      "Tho": 3549,
      "Thêm": 3550,
      "tơpĕnh": 3551,
      "atau": 3552,
      "pơnhoh": 3553,
      "ala": 3554,
      "lah": 3555,
      "lap": 3556,
      "kuă": 3557,
      "kuang": 3558,
      "lượ": 3559,
      "lươ̆k": 3560,
      "Chôt": 3561,
      "Trơ": 3562,
      "nach": 3563,
      "tiê̆n": 3564,
      "hlêh": 3565,
      "glaih": 3566,
      "apoih": 3567,
      "tơhnglăih": 3568,
      "Tơj": 3569,
      "Tơtam": 3570,
      "Nga": 3571,
      "Nganh": 3572,
      "Ngŏk": 3573,
      "Nguyên": 3574,
      "tơxi": 3575,
      "##ate": 3576,
      "arĕ": 3577,
      "bac": 3578,
      "biên": 3579,
      "Adrê̆ch": 3580,
      "chuơĭ": 3581,
      "triê̆u": 3582,
      "Pơkă": 3583,
      "Nhương": 3584,
      "##â̆n": 3585,
      "kuyê": 3586,
      "Khĭ": 3587,
      "Khăi": 3588,
      "amĕm": 3589,
      "amrĕ": 3590,
      "srĕ": 3591,
      "sreh": 3592,
      "giăc": 3593,
      "klơĭ": 3594,
      "klik": 3595,
      "Pơgop": 3596,
      "kơtŭm": 3597,
      "kơtơp": 3598,
      "kơthơ": 3599,
      "đô̆i": 3600,
      "sơngum": 3601,
      "hau": 3602,
      "đêm": 3603,
      "chư̆": 3604,
      "yuĭt": 3605,
      "Sư̆": 3606,
      "kơnă": 3607,
      "Chiu": 3608,
      "điều": 3609,
      "##ơught": 3610,
      "pơlênh": 3611,
      "kilogam": 3612,
      "diong": 3613,
      "grơng": 3614,
      "gron": 3615,
      "huyêt": 3616,
      "tơkư": 3617,
      "tơkal": 3618,
      "##res": 3619,
      "tơdong": 3620,
      "Đĭu": 3621,
      "blă": 3622,
      "Kơpưng": 3623,
      "nguơn": 3624,
      "Drơught": 3625,
      "bưu": 3626,
      "gơning": 3627,
      "kŭt": 3628,
      "Tơpơh": 3629,
      "hôi": 3630,
      "Khoang": 3631,
      "Dơdrơ̆u": 3632,
      "Dơbưk": 3633,
      "tơblah": 3634,
      "mư̆t": 3635,
      "dât": 3636,
      "dâng": 3637,
      "khêo": 3638,
      "bơdư": 3639,
      "bơdô̆": 3640,
      "Bio": 3641,
      "khôn": 3642,
      "khô̆ng": 3643,
      "khô̆i": 3644,
      "kial": 3645,
      "Kê̆t": 3646,
      "luai": 3647,
      "450": 3648,
      "XIV": 3649,
      "##ics": 3650,
      "TNCS": 3651,
      "hơlŏng": 3652,
      "Kơtơ̆ng": 3653,
      "Kơtăp": 3654,
      "Loai": 3655,
      "chơpuih": 3656,
      "Plĕnh": 3657,
      "mơlơ̆u": 3658,
      "khuyê̆n": 3659,
      "Xư̆": 3660,
      "pơsĕi": 3661,
      "pơkuă": 3662,
      "pơkuê̆": 3663,
      "hnuh": 3664,
      "Super": 3665,
      "hiê̆u": 3666,
      "QLCL": 3667,
      "##ĐTBXH": 3668,
      "Website": 3669,
      "đốc": 3670,
      "##tơdrong": 3671,
      "kheŭ": 3672,
      "virus": 3673,
      "yê̆u": 3674,
      "hriêng": 3675,
      "!\"": 3676,
      ",'": 3677,
      "42": 3678,
      "61": 3679,
      "700": 3680,
      "81": 3681,
      "As": 3682,
      "AN": 3683,
      "AÊ": 3684,
      "Ang": 3685,
      "Ară": 3686,
      "Arah": 3687,
      "BQ": 3688,
      "BB": 3689,
      "Bôi": 3690,
      "Bri": 3691,
      "CS": 3692,
      "Căn": 3693,
      "Cop": 3694,
      "Clor": 3695,
      "Di": 3696,
      "Gư": 3697,
      "Gêr": 3698,
      "Hoan": 3699,
      "Hom": 3700,
      "Hop": 3701,
      "Hla": 3702,
      "IP": 3703,
      "III": 3704,
      "Ky": 3705,
      "K3": 3706,
      "Kư": 3707,
      "Ka": 3708,
      "Kŭ": 3709,
      "Kơng": 3710,
      "King": 3711,
      "Kuân": 3712,
      "Krông": 3713,
      "Kŏch": 3714,
      "Lưk": 3715,
      "Loan": 3716,
      "Luâ̆t": 3717,
      "Ne": 3718,
      "Noh": 3719,
      "Nơ̆u": 3720,
      "Năng": 3721,
      "O5": 3722,
      "Pui": 3723,
      "Ra": 3724,
      "Red": 3725,
      "Sh": 3726,
      "Sĭn": 3727,
      "SGDĐT": 3728,
      "TD": 3729,
      "Ti": 3730,
      "TA": 3731,
      "TY": 3732,
      "Tao": 3733,
      "Tâp": 3734,
      "Tia": 3735,
      "Vĭ": 3736,
      "Vĕi": 3737,
      "Yên": 3738,
      "Yă": 3739,
      "Yêu": 3740,
      "ag": 3741,
      "aw": 3742,
      "bơ̆m": 3743,
      "beh": 3744,
      "bê̆": 3745,
      "bưk": 3746,
      "bat": 3747,
      "buôi": 3748,
      "bơhnar": 3749,
      "bek": 3750,
      "co": 3751,
      "củ": 3752,
      "có": 3753,
      "can": 3754,
      "dong": 3755,
      "dơng": 3756,
      "diêng": 3757,
      "dơl": 3758,
      "gih": 3759,
      "gưng": 3760,
      "hh": 3761,
      "hng": 3762,
      "hĭnh": 3763,
      "hat": 3764,
      "hâp": 3765,
      "iv": 3766,
      "jă": 3767,
      "jơ̆p": 3768,
      "jĭ": 3769,
      "juôi": 3770,
      "kŏk": 3771,
      "kê": 3772,
      "lự": 3773,
      "lăng": 3774,
      "lal": 3775,
      "lĭm": 3776,
      "me": 3777,
      "mơng": 3778,
      "mơh": 3779,
      "mok": 3780,
      "mĭnh": 3781,
      "mô̆i": 3782,
      "môi": 3783,
      "nơn": 3784,
      "nol": 3785,
      "nêp": 3786,
      "puô": 3787,
      "ping": 3788,
      "plih": 3789,
      "pot": 3790,
      "sở": 3791,
      "săn": 3792,
      "sơl": 3793,
      "tỉ": 3794,
      "tât": 3795,
      "tom": 3796,
      "tuyên": 3797,
      "tâm": 3798,
      "với": 3799,
      "wang": 3800,
      "wai": 3801,
      "wêl": 3802,
      "xâm": 3803,
      "y̆": 3804,
      "yŏ": 3805,
      "yuôn": 3806,
      "yich": 3807,
      "âu": 3808,
      "Đa": 3809,
      "Đăm": 3810,
      "Đĕi": 3811,
      "Đô̆ng": 3812,
      "Đào": 3813,
      "Định": 3814,
      "đă": 3815,
      "điê": 3816,
      "đưc": 3817,
      "đơk": 3818,
      "đăc": 3819,
      "Ơi": 3820,
      "ơp": 3821,
      "##uuôĭ": 3822,
      "##ex": 3823,
      "##̆l": 3824,
      "##pl": 3825,
      "##̂̆i": 3826,
      "##ter": 3827,
      "##dan": 3828,
      "##rai": 3829,
      "##rat": 3830,
      "##oc": 3831,
      "##êk": 3832,
      "##ưp": 3833,
      "##iu": 3834,
      "##ip": 3835,
      "##as": 3836,
      "##khan": 3837,
      "##ác": 3838,
      "##ách": 3839,
      "##lŏng": 3840,
      "##ệp": 3841,
      "##ệm": 3842,
      "##AP": 3843,
      "##HTT": 3844,
      "##ộc": 3845,
      "##VHTT": 3846,
      "##GT": 3847,
      "##GAP": 3848,
      "##BND": 3849,
      "##KTT": 3850,
      "##LĐTBXH": 3851,
      "##ốt": 3852,
      "##ïul": 3853,
      "##ọc": 3854,
      "##ởng": 3855,
      "##ập": 3856,
      "tơdr": 3857,
      "tơ̆t": 3858,
      "tơïul": 3859,
      "pơloh": 3860,
      "cha": 3861,
      "chĭng": 3862,
      "chroh": 3863,
      "triêng": 3864,
      "trăi": 3865,
      "trăk": 3866,
      "thinh": 3867,
      "khanh": 3868,
      "khoi": 3869,
      "khăi": 3870,
      "khêp": 3871,
      "kơw": 3872,
      "adrơ": 3873,
      "adrĕch": 3874,
      "phau": 3875,
      "pơtơ̆m": 3876,
      "aninh": 3877,
      "să": 3878,
      "sap": 3879,
      "nhă": 3880,
      "nhao": 3881,
      "nhat": 3882,
      "nhơ̆n": 3883,
      "nhĕm": 3884,
      "hre": 3885,
      "hruh": 3886,
      "tơmăk": 3887,
      "đah": 3888,
      "mau": 3889,
      "Thai": 3890,
      "Thôn": 3891,
      "dơnơ̆": 3892,
      "atêng": 3893,
      "atak": 3894,
      "atău": 3895,
      "atuôch": 3896,
      "hơb": 3897,
      "hơbơ̆u": 3898,
      "thuê": 3899,
      "hnhuk": 3900,
      "hnhăi": 3901,
      "kơpul": 3902,
      "alăng": 3903,
      "UBKTT": 3904,
      "layơ": 3905,
      "bĭk": 3906,
      "kuăng": 3907,
      "Cham": 3908,
      "Chanh": 3909,
      "Chê̆": 3910,
      "Tra": 3911,
      "til": 3912,
      "tiê̆": 3913,
      "gion": 3914,
      "giây": 3915,
      "giŏng": 3916,
      "hlôl": 3917,
      "lơi": 3918,
      "druh": 3919,
      "tơhl": 3920,
      "yăo": 3921,
      "Ngăt": 3922,
      "krĕi": 3923,
      "kruuôĭ": 3924,
      "ngoăi": 3925,
      "tưu": 3926,
      "108": 3927,
      "chich": 3928,
      "maih": 3929,
      "jơd": 3930,
      "##enl": 3931,
      "loang": 3932,
      "Nhi": 3933,
      "Nhŭng": 3934,
      "tô̆": 3935,
      "Bô̆": 3936,
      "##âu": 3937,
      "quyê": 3938,
      "vuông": 3939,
      "theo": 3940,
      "Khanh": 3941,
      "Khŏa": 3942,
      "bơlơ̆ng": 3943,
      "sriê̆": 3944,
      "##itrat": 3945,
      "klok": 3946,
      "klep": 3947,
      "kơsu": 3948,
      "plơh": 3949,
      "kơtang": 3950,
      "kơting": 3951,
      "HĐH": 3952,
      "bơgrong": 3953,
      "##opter": 3954,
      "bunh": 3955,
      "jrŭ": 3956,
      "jruh": 3957,
      "hiah": 3958,
      "yuiêt": 3959,
      "quang": 3960,
      "193": 3961,
      "phut": 3962,
      "yơi": 3963,
      "thŭ̆": 3964,
      "120": 3965,
      "tŏ": 3966,
      "toaih": 3967,
      "##erpa": 3968,
      "kơlot": 3969,
      "huên": 3970,
      "cươm": 3971,
      "hyơt": 3972,
      "sơhmĕch": 3973,
      "116": 3974,
      "blang": 3975,
      "##dae": 3976,
      "hmong": 3977,
      "hmăng": 3978,
      "pơnăt": 3979,
      "Corona": 3980,
      "Pơnhơm": 3981,
      "cuc": 3982,
      "krăi": 3983,
      "Phŏ": 3984,
      "Phô̆i": 3985,
      "##uâ̆n": 3986,
      "2003": 3987,
      "140": 3988,
      "păl": 3989,
      "dyong": 3990,
      "adon": 3991,
      "tơnghĭt": 3992,
      "bơdưng": 3993,
      "Big": 3994,
      "297": 3995,
      "pơdơi": 3996,
      "chŭt": 3997,
      "Layơ": 3998,
      "luôch": 3999,
      "phŏ": 4000,
      "tơnglơ̆p": 4001,
      "lanhư": 4002,
      "tâ̆p": 4003,
      "đĭa": 4004,
      "khuyê̆n": 4005,
      "kod": 4006,
      "jơdrap": 4007,
      "750": 4008,
      "CNH": 4009,
      "iii": 4010,
      "lĕch": 4011,
      "Supe": 4012,
      "TCCB": 4013,
      "Urea": 4014,
      "lê̆i": 4015,
      "khĕo": 4016,
      "637": 4017,
      "STC": 4018,
      "STP": 4019,
      "test": 4020,
      "xoang": 4021,
      "dơgơ̆": 4022,
      "chơnŭp": 4023,
      "Gơnơm": 4024,
      "Klăn": 4025,
      "prăh": 4026,
      "yuyêt": 4027,
      "Chănh": 4028,
      "Grow": 4029,
      "##gistics": 4030,
      "tơnhơĭ": 4031,
      "Tơjul": 4032,
      "##resol": 4033,
      "Angus": 4034,
      "BBB": 4035,
      "Copper": 4036,
      "Cloramin": 4037,
      "Gưi": 4038,
      "IPM": 4039,
      "New": 4040,
      "Sherpa": 4041,
      "TDTT": 4042,
      "TAND": 4043,
      "mơhi": 4044,
      "nơnung": 4045,
      "puôil": 4046,
      "potho": 4047,
      "tome": 4048,
      "UBKTTW": 4049,
      "tiê̆p": 4050,
      "##optera": 4051,
      "\";": 4052,
      "%/": 4053,
      "1k": 4054,
      "56": 4055,
      "57": 4056,
      "69": 4057,
      "66": 4058,
      "67": 4059,
      "76": 4060,
      "77": 4061,
      "83": 4062,
      "87": 4063,
      "82": 4064,
      "Au": 4065,
      "Ai": 4066,
      "Am": 4067,
      "Aring": 4068,
      "Băng": 4069,
      "Bach": 4070,
      "Băt": 4071,
      "Băp": 4072,
      "Biê̆": 4073,
      "Bac": 4074,
      "BTT": 4075,
      "Bre": 4076,
      "Bình": 4077,
      "Benl": 4078,
      "Cy": 4079,
      "CV": 4080,
      "Câu": 4081,
      "Diên": 4082,
      "F1": 4083,
      "GP": 4084,
      "Gho": 4085,
      "Gah": 4086,
      "Hy": 4087,
      "HF": 4088,
      "Hinh": 4089,
      "Hăng": 4090,
      "Hiêu": 4091,
      "Hơp": 4092,
      "Jul": 4093,
      "Jic": 4094,
      "K4": 4095,
      "Kĭ": 4096,
      "K2": 4097,
      "KL": 4098,
      "Kăm": 4099,
      "Kŭk": 4100,
      "Kach": 4101,
      "Kông": 4102,
      "Lơng": 4103,
      "Lanh": 4104,
      "Loi": 4105,
      "Luân": 4106,
      "Lôk": 4107,
      "Lơĭ": 4108,
      "Miên": 4109,
      "MTV": 4110,
      "NH": 4111,
      "Nưih": 4112,
      "Nitrat": 4113,
      "O3": 4114,
      "Piêu": 4115,
      "Qŭ̆t": 4116,
      "Rây": 4117,
      "SK": 4118,
      "SO": 4119,
      "Sơngl": 4120,
      "Sco": 4121,
      "Tơn": 4122,
      "Toan": 4123,
      "Tơ̆p": 4124,
      "Tiêp": 4125,
      "Tâm": 4126,
      "Tông": 4127,
      "Tuôi": 4128,
      "UV": 4129,
      "Uôn": 4130,
      "VH": 4131,
      "VP": 4132,
      "Vương": 4133,
      "Vit": 4134,
      "Vui": 4135,
      "VIII": 4136,
      "Xuât": 4137,
      "Yä": 4138,
      "Yiên": 4139,
      "ax": 4140,
      "aj": 4141,
      "adrong": 4142,
      "ahr": 4143,
      "be": 4144,
      "bât": 4145,
      "bah": 4146,
      "bot": 4147,
      "bĕt": 4148,
      "căn": 4149,
      "căt": 4150,
      "dĕi": 4151,
      "dep": 4152,
      "dây": 4153,
      "duôh": 4154,
      "dŭt": 4155,
      "dâng": 4156,
      "eh": 4157,
      "ĕi": 4158,
      "gơ̆": 4159,
      "gan": 4160,
      "hah": 4161,
      "hă": 4162,
      "hep": 4163,
      "hội": 4164,
      "jam": 4165,
      "jơnăm": 4166,
      "jơl": 4167,
      "jal": 4168,
      "jok": 4169,
      "jroh": 4170,
      "jơg": 4171,
      "jah": 4172,
      "jich": 4173,
      "jil": 4174,
      "juô̆": 4175,
      "jĕl": 4176,
      "kan": 4177,
      "kiêu": 4178,
      "kaih": 4179,
      "kâu": 4180,
      "kân": 4181,
      "li": 4182,
      "là": 4183,
      "leng": 4184,
      "lĭnh": 4185,
      "luk": 4186,
      "lĕch": 4187,
      "lôp": 4188,
      "mê": 4189,
      "mạ": 4190,
      "m2": 4191,
      "moi": 4192,
      "nong": 4193,
      "nơng": 4194,
      "nưm": 4195,
      "nươk": 4196,
      "ox": 4197,
      "oĕi": 4198,
      "oresol": 4199,
      "pan": 4200,
      "pă": 4201,
      "pia": 4202,
      "piêu": 4203,
      "ri": 4204,
      "rông": 4205,
      "rơ̆u": 4206,
      "riêng": 4207,
      "ria": 4208,
      "se": 4209,
      "sim": 4210,
      "sŏng": 4211,
      "sêng": 4212,
      "săk": 4213,
      "sot": 4214,
      "tăm": 4215,
      "tol": 4216,
      "tem": 4217,
      "tĕi": 4218,
      "tăl": 4219,
      "tăch": 4220,
      "tục": 4221,
      "tăk": 4222,
      "tập": 4223,
      "uh": 4224,
      "vụ": 4225,
      "vanh": 4226,
      "viêng": 4227,
      "viêm": 4228,
      "wi": 4229,
      "wêng": 4230,
      "wơ̆l": 4231,
      "xam": 4232,
      "xanh": 4233,
      "xê̆": 4234,
      "yä": 4235,
      "yơl": 4236,
      "yem": 4237,
      "yŭng": 4238,
      "yak": 4239,
      "yoa": 4240,
      "Ân": 4241,
      "Đrin": 4242,
      "đong": 4243,
      "đĕch": 4244,
      "đuôt": 4245,
      "đây": 4246,
      "điêm": 4247,
      "đào": 4248,
      "đâk": 4249,
      "động": 4250,
      "đồng": 4251,
      "ơt": 4252,
      "ư̆m": 4253,
      "ươk": 4254,
      "…;": 4255,
      "##ue": 4256,
      "##uing": 4257,
      "##gơl": 4258,
      "##hul": 4259,
      "##̆ch": 4260,
      "##puôn": 4261,
      "##pơ̆k": 4262,
      "##DL": 4263,
      "##yt": 4264,
      "##̂l": 4265,
      "##ơđ": 4266,
      "##reh": 4267,
      "##rau": 4268,
      "##ou": 4269,
      "##54": 4270,
      "##ưl": 4271,
      "##ưch": 4272,
      "##ư̆m": 4273,
      "##ĭt": 4274,
      "##idae": 4275,
      "##ari": 4276,
      "##adan": 4277,
      "##cam": 4278,
      "##cul": 4279,
      "##ŏ̆ng": 4280,
      "##ăh": 4281,
      "##át": 4282,
      "##áng": 4283,
      "##ler": 4284,
      "##ô̆ng": 4285,
      "##97": 4286,
      "##ức": 4287,
      "##ĭp": 4288,
      "##AC": 4289,
      "##A2": 4290,
      "##ạm": 4291,
      "##̌n": 4292,
      "##CA": 4293,
      "##CP": 4294,
      "##ben": 4295,
      "##băl": 4296,
      "##jang": 4297,
      "##MT": 4298,
      "##wi": 4299,
      "##BTV": 4300,
      "##ày": 4301,
      "##PT": 4302,
      "##ềnh": 4303,
      "##ång": 4304,
      "##UBND": 4305,
      "##ịch": 4306,
      "tơch": 4307,
      "##druh": 4308,
      "##iêŭ": 4309,
      "chông": 4310,
      "chai": 4311,
      "chuô": 4312,
      "chôi": 4313,
      "chơt": 4314,
      "chơd": 4315,
      "chop": 4316,
      "chô̆": 4317,
      "cheu": 4318,
      "chĭch": 4319,
      "chơhn": 4320,
      "chiê̆n": 4321,
      "chơdah": 4322,
      "chiêŭ": 4323,
      "treng": 4324,
      "trĭn": 4325,
      "thơ": 4326,
      "thủ": 4327,
      "thung": 4328,
      "thuô": 4329,
      "thê̆": 4330,
      "thâp": 4331,
      "kha": 4332,
      "khing": 4333,
      "khân": 4334,
      "khơh": 4335,
      "khơ̆h": 4336,
      "khiê̆u": 4337,
      "kheo": 4338,
      "##and": 4339,
      "ngơ̆n": 4340,
      "ngay": 4341,
      "##ailer": 4342,
      "phiên": 4343,
      "phâm": 4344,
      "##uô̆ng": 4345,
      "pơtĕp": 4346,
      "adrĭngk": 4347,
      "anong": 4348,
      "nhu": 4349,
      "nhăn": 4350,
      "nhau": 4351,
      "nhŏm": 4352,
      "nhot": 4353,
      "nhĕk": 4354,
      "đăi": 4355,
      "pơgei": 4356,
      "Thao": 4357,
      "Thăng": 4358,
      "Thĭ": 4359,
      "Thah": 4360,
      "Thơi": 4361,
      "tơgong": 4362,
      "Nău": 4363,
      "hơră": 4364,
      "thŭ": 4365,
      "thuâ": 4366,
      "pơthokhan": 4367,
      "hnhŭk": 4368,
      "pơđơng": 4369,
      "kơpla": 4370,
      "pơnhan": 4371,
      "##êk": 4372,
      "aluôh": 4373,
      "ksơ": 4374,
      "UBTV": 4375,
      "lăi": 4376,
      "##ôm": 4377,
      "##ôl": 4378,
      "kup": 4379,
      "kuôk": 4380,
      "đeu": 4381,
      "lươ̆ng": 4382,
      "đôn": 4383,
      "măk": 4384,
      "Chŭn": 4385,
      "Chiên": 4386,
      "Chiê̆n": 4387,
      "Chĭu": 4388,
      "Chĭu": 4389,
      "Chơđ": 4390,
      "Tri": 4391,
      "Trơ̆": 4392,
      "Trailer": 4393,
      "tiêt": 4394,
      "wăl": 4395,
      "hlang": 4396,
      "hling": 4397,
      "hlal": 4398,
      "hlơ̆p": 4399,
      "aping": 4400,
      "drŏng": 4401,
      "drơu": 4402,
      "Phô": 4403,
      "Phĭ": 4404,
      "Phŭ": 4405,
      "Phó": 4406,
      "Phung": 4407,
      "loih": 4408,
      "Ngai": 4409,
      "Nguôn": 4410,
      "bơ̆t": 4411,
      "chohjang": 4412,
      "min": 4413,
      "arah": 4414,
      "băng": 4415,
      "106": 4416,
      "107": 4417,
      "chia": 4418,
      "bơĭ": 4419,
      "đĭu": 4420,
      "brich": 4421,
      "leech": 4422,
      "biê̆n": 4423,
      "biêk": 4424,
      "kơdung": 4425,
      "loa": 4426,
      "loat": 4427,
      "logistics": 4428,
      "Nhơ̆p": 4429,
      "akap": 4430,
      "tôc": 4431,
      "abrĕ": 4432,
      "mĭr": 4433,
      "##iê̆t": 4434,
      "Gia": 4435,
      "yươ̆ng": 4436,
      "theå": 4437,
      "2024": 4438,
      "Khê": 4439,
      "Không": 4440,
      "bơlưk": 4441,
      "bơluk": 4442,
      "prăng": 4443,
      "amông": 4444,
      "srôh": 4445,
      "sơ̆i": 4446,
      "kla": 4447,
      "klôm": 4448,
      "asău": 4449,
      "asiu": 4450,
      "dơd": 4451,
      "brang": 4452,
      "brơh": 4453,
      "Pơgĕi": 4454,
      "plơ̆": 4455,
      "plăt": 4456,
      "plơk": 4457,
      "plư̆ng": 4458,
      "kơtăng": 4459,
      "kơtêch": 4460,
      "tơnang": 4461,
      "tơnơl": 4462,
      "sơnglŏng": 4463,
      "Băk": 4464,
      "Nghê": 4465,
      "xư̌": 4466,
      "Thuôk": 4467,
      "buơ̆": 4468,
      "'''": 4469,
      "Sưu": 4470,
      "ViêtGAP": 4471,
      "kơne": 4472,
      "kơniêh": 4473,
      "ơkâu": 4474,
      "điah": 4475,
      "198": 4476,
      "pơlêch": 4477,
      "côt": 4478,
      "biêa": 4479,
      "phuc": 4480,
      "hôp": 4481,
      "Chăl": 4482,
      "lơngưp": 4483,
      "Quyêt": 4484,
      "vĭt": 4485,
      "121": 4486,
      "Yăh": 4487,
      "toång": 4488,
      "tuôch": 4489,
      "grông": 4490,
      "Nghia": 4491,
      "sôt": 4492,
      "bling": 4493,
      "blưk": 4494,
      "blah": 4495,
      "blŏch": 4496,
      "hmuô̆ch": 4497,
      "vưc": 4498,
      "bơnat": 4499,
      "pơnuôt": 4500,
      "Drou": 4501,
      "kŏch": 4502,
      "gơnơ̆m": 4503,
      "Kriêm": 4504,
      "Tơpơ̆h": 4505,
      "gư̆ng": 4506,
      "Phŭ": 4507,
      "Phuc": 4508,
      "tăt": 4509,
      "người": 4510,
      "2008": 4511,
      "2002": 4512,
      "kêo": 4513,
      "achuing": 4514,
      "jiao": 4515,
      "134": 4516,
      "ayăt": 4517,
      "tơbang": 4518,
      "yip": 4519,
      "Ksô": 4520,
      "Ksơ̆": 4521,
      "Tơmưt": 4522,
      "250": 4523,
      "bơdung": 4524,
      "357": 4525,
      "nhik": 4526,
      "nhiệm": 4527,
      "Atung": 4528,
      "kư̆u": 4529,
      "chơhleng": 4530,
      "chơhlot": 4531,
      "500m2": 4532,
      "Kơtum": 4533,
      "sơnĕnh": 4534,
      "##ĕh": 4535,
      "##ĕnh": 4536,
      "hơnăt": 4537,
      "Hươ̆ng": 4538,
      "tơwang": 4539,
      "tơwing": 4540,
      "Giám": 4541,
      "lơhông": 4542,
      "tại": 4543,
      "TC1": 4544,
      "goang": 4545,
      "muông": 4546,
      "kơkuh": 4547,
      "kơkach": 4548,
      "Bơgrong": 4549,
      "Bơghê": 4550,
      "TuâÊn": 4551,
      "tĭa": 4552,
      "Becam": 4553,
      "Jrơ̆u": 4554,
      "Jră": 4555,
      "685": 4556,
      "Alê̆": 4557,
      "Cưu": 4558,
      "dựng": 4559,
      "hơmôl": 4560,
      "chơnglôk": 4561,
      "chơnglak": 4562,
      "tơpalh": 4563,
      "CHQS": 4564,
      "Carben": 4565,
      "Hmăng": 4566,
      "KTNS": 4567,
      "xĭn": 4568,
      "đơbưk": 4569,
      "chỉh": 4570,
      "lượng": 4571,
      "!\".": 4572,
      "Asong": 4573,
      "BQP": 4574,
      "CSGT": 4575,
      "awah": 4576,
      "của": 4577,
      "hnglo": 4578,
      "lực": 4579,
      "yŏl": 4580,
      "kơwơng": 4581,
      "tơhlăk": 4582,
      "jơdah": 4583,
      "BigC": 4584,
      "kodơ̆u": 4585,
      "1km": 4586,
      "Breed": 4587,
      "Benlate": 4588,
      "GPS": 4589,
      "Ghok": 4590,
      "Jica": 4591,
      "Kĭa": 4592,
      "Lanhư": 4593,
      "Sơnglŏng": 4594,
      "Score": 4595,
      "UVBTV": 4596,
      "Vitamin": 4597,
      "axit": 4598,
      "ajin": 4599,
      "jơgơ̆l": 4600,
      "xê̆p": 4601,
      "chơdŏng": 4602,
      "hơrăp": 4603,
      "thuâ̆t": 4604,
      "UBTVQH": 4605,
      "abrĕn": 4606,
      "Becamex": 4607,
      "!”": 4608,
      "00": 4609,
      "5m": 4610,
      "5gam": 4611,
      "64": 4612,
      "6A2": 4613,
      "73": 4614,
      "78": 4615,
      "71": 4616,
      "800": 4617,
      "93": 4618,
      "900": 4619,
      "Ag": 4620,
      "Ak": 4621,
      "Az": 4622,
      "Aân": 4623,
      "Act": 4624,
      "Ala": 4625,
      "Bu": 4626,
      "Br": 4627,
      "Bư": 4628,
      "Bl": 4629,
      "BH": 4630,
      "Bai": 4631,
      "Bơl": 4632,
      "Bâm": 4633,
      "Bah": 4634,
      "Bau": 4635,
      "Bơu": 4636,
      "BVHTT": 4637,
      "BLĐTBXH": 4638,
      "Cach": 4639,
      "Dinh": 4640,
      "Danh": 4641,
      "Duh": 4642,
      "Duy": 4643,
      "Dră": 4644,
      "Dach": 4645,
      "En": 4646,
      "Fe": 4647,
      "F2": 4648,
      "Flo": 4649,
      "Gô": 4650,
      "Gơ̆n": 4651,
      "Hê": 4652,
      "Hŭ": 4653,
      "HL": 4654,
      "Hiên": 4655,
      "Hon": 4656,
      "Hre": 4657,
      "Hroi": 4658,
      "Hrê": 4659,
      "Hội": 4660,
      "Học": 4661,
      "Jo": 4662,
      "Ja": 4663,
      "Jj": 4664,
      "JI": 4665,
      "Jan": 4666,
      "Joh": 4667,
      "Jot": 4668,
      "Kŏ": 4669,
      "K1": 4670,
      "Kơn": 4671,
      "Kai": 4672,
      "Kơl": 4673,
      "Kĭnh": 4674,
      "Kră": 4675,
      "Kum": 4676,
      "Kêt": 4677,
      "Kat": 4678,
      "Kăi": 4679,
      "Kê̆": 4680,
      "Kar": 4681,
      "Kâp": 4682,
      "Kuc": 4683,
      "Kuôk": 4684,
      "Kali": 4685,
      "Kŭt": 4686,
      "Kbăl": 4687,
      "Kwi": 4688,
      "Lơ": 4689,
      "LL": 4690,
      "Lĭn": 4691,
      "Lau": 4692,
      "Lep": 4693,
      "Lâp": 4694,
      "Lơp": 4695,
      "Liên": 4696,
      "LĐTB": 4697,
      "MX": 4698,
      "MH": 4699,
      "ML": 4700,
      "MW": 4701,
      "Man": 4702,
      "Mơ̆u": 4703,
      "Mơm": 4704,
      "Mât": 4705,
      "Mah": 4706,
      "Mă": 4707,
      "Mĭn": 4708,
      "MHC": 4709,
      "Moih": 4710,
      "Muc": 4711,
      "NS": 4712,
      "Ni": 4713,
      "Nŭ": 4714,
      "NN": 4715,
      "Nho": 4716,
      "Nông": 4717,
      "Nĕ": 4718,
      "OD": 4719,
      "Pk": 4720,
      "Pơn": 4721,
      "Pok": 4722,
      "Pjo": 4723,
      "PTNT": 4724,
      "Padan": 4725,
      "Qu": 4726,
      "QC": 4727,
      "Ro": 4728,
      "Ri": 4729,
      "Rơn": 4730,
      "Rac": 4731,
      "Rơih": 4732,
      "Sr": 4733,
      "SC": 4734,
      "SP": 4735,
      "Săng": 4736,
      "Siêu": 4737,
      "Sưng": 4738,
      "Sră": 4739,
      "Sum": 4740,
      "Sem": 4741,
      "Sô̆": 4742,
      "Suc": 4743,
      "Sist": 4744,
      "SNV": 4745,
      "Sra": 4746,
      "SVHTT": 4747,
      "SLĐTBXH": 4748,
      "TH": 4749,
      "Tà": 4750,
      "Tong": 4751,
      "Tiê": 4752,
      "Tiêm": 4753,
      "Tĭnh": 4754,
      "Tum": 4755,
      "Tâ": 4756,
      "Tep": 4757,
      "Tiê̆n": 4758,
      "Tiên": 4759,
      "TCL": 4760,
      "Urê": 4761,
      "Vê": 4762,
      "Vi": 4763,
      "Vĭnh": 4764,
      "Viê̆t": 4765,
      "WG": 4766,
      "Xa": 4767,
      "Xŭk": 4768,
      "Xom": 4769,
      "YÊ": 4770,
      "Yĕr": 4771,
      "Ze": 4772,
      "ađ": 4773,
      "âl": 4774,
      "bỡ": 4775,
      "bong": 4776,
      "bâk": 4777,
      "cấ": 4778,
      "cả": 4779,
      "cương": 4780,
      "côi": 4781,
      "con": 4782,
      "cưk": 4783,
      "cac": 4784,
      "côn": 4785,
      "cộng": 4786,
      "dụ": 4787,
      "dan": 4788,
      "dơ̆u": 4789,
      "dơm": 4790,
      "dŏng": 4791,
      "dring": 4792,
      "dat": 4793,
      "dâu": 4794,
      "dak": 4795,
      "doa": 4796,
      "doc": 4797,
      "gg": 4798,
      "gŏ": 4799,
      "gơh": 4800,
      "geh": 4801,
      "gơg": 4802,
      "gach": 4803,
      "gom": 4804,
      "gop": 4805,
      "gĭt": 4806,
      "gơi": 4807,
      "hệ": 4808,
      "hỗ": 4809,
      "hiê": 4810,
      "hua": 4811,
      "hŭ̆t": 4812,
      "hăp": 4813,
      "het": 4814,
      "hil": 4815,
      "hăk": 4816,
      "hân": 4817,
      "huôi": 4818,
      "hău": 4819,
      "hĭm": 4820,
      "hĭu": 4821,
      "hŭt": 4822,
      "học": 4823,
      "huâ̆n": 4824,
      "iê": 4825,
      "jo": 4826,
      "jj": 4827,
      "jră": 4828,
      "jă": 4829,
      "jot": 4830,
      "jâp": 4831,
      "jăng": 4832,
      "kW": 4833,
      "kăm": 4834,
      "kim": 4835,
      "kuô": 4836,
      "kŏng": 4837,
      "kal": 4838,
      "kuyên": 4839,
      "ket": 4840,
      "kiê": 4841,
      "klaih": 4842,
      "kit": 4843,
      "kop": 4844,
      "kuôl": 4845,
      "kiêl": 4846,
      "kâu": 4847,
      "lờ": 4848,
      "lý": 4849,
      "lung": 4850,
      "lŏk": 4851,
      "luy": 4852,
      "luôn": 4853,
      "lŏng": 4854,
      "lê": 4855,
      "lĭ": 4856,
      "lê̆": 4857,
      "lần": 4858,
      "mĕi": 4859,
      "mơ̆m": 4860,
      "mao": 4861,
      "mân": 4862,
      "mŭm": 4863,
      "mum": 4864,
      "môk": 4865,
      "mĕi": 4866,
      "mŏm": 4867,
      "mui": 4868,
      "mĕt": 4869,
      "mưc": 4870,
      "mut": 4871,
      "mình": 4872,
      "muô̆ng": 4873,
      "no": 4874,
      "nung": 4875,
      "nơl": 4876,
      "nêt": 4877,
      "nuôĭ": 4878,
      "nô̆": 4879,
      "nŏn": 4880,
      "nuôl": 4881,
      "nêu": 4882,
      "oe": 4883,
      "ô": 4884,
      "oi": 4885,
      "ok": 4886,
      "pư": 4887,
      "pi": 4888,
      "pô": 4889,
      "pj": 4890,
      "pH": 4891,
      "piêng": 4892,
      "paih": 4893,
      "piêt": 4894,
      "puôt": 4895,
      "put": 4896,
      "pĕh": 4897,
      "re": 4898,
      "rr": 4899,
      "rai": 4900,
      "rê̆": 4901,
      "rêt": 4902,
      "rak": 4903,
      "rênh": 4904,
      "rôn": 4905,
      "rĕk": 4906,
      "râng": 4907,
      "rtơdrong": 4908,
      "sy": 4909,
      "sŭ": 4910,
      "sự": 4911,
      "sỉ": 4912,
      "sông": 4913,
      "sôi": 4914,
      "siêng": 4915,
      "sơ̆p": 4916,
      "sring": 4917,
      "sâu": 4918,
      "sŭng": 4919,
      "sin": 4920,
      "sĭch": 4921,
      "sĭt": 4922,
      "sâÊ": 4923,
      "sŭp": 4924,
      "sách": 4925,
      "tt": 4926,
      "tế": 4927,
      "tiêng": 4928,
      "tên": 4929,
      "tăt": 4930,
      "tuôih": 4931,
      "tău": 4932,
      "tăp": 4933,
      "tek": 4934,
      "tác": 4935,
      "tốt": 4936,
      "tuâ̆n": 4937,
      "tịch": 4938,
      "ui": 4939,
      "ure": 4940,
      "uiêl": 4941,
      "uôl": 4942,
      "vn": 4943,
      "va": 4944,
      "vă": 4945,
      "vng": 4946,
      "vưng": 4947,
      "vêt": 4948,
      "vâ̆n": 4949,
      "wä": 4950,
      "wăng": 4951,
      "wôi": 4952,
      "weh": 4953,
      "wơl": 4954,
      "wă": 4955,
      "wau": 4956,
      "wơ̆i": 4957,
      "wơih": 4958,
      "wek": 4959,
      "wêk": 4960,
      "xô": 4961,
      "xương": 4962,
      "xưng": 4963,
      "xên": 4964,
      "xach": 4965,
      "xin": 4966,
      "yap": 4967,
      "yaih": 4968,
      "yĭn": 4969,
      "yơ̆k": 4970,
      "yiê̆n": 4971,
      "yê̆t": 4972,
      "yêu": 4973,
      "yôm": 4974,
      "Êtơdrong": 4975,
      "âp": 4976,
      "ôt": 4977,
      "ông": 4978,
      "ăl": 4979,
      "Đả": 4980,
      "ĐR": 4981,
      "Đam": 4982,
      "Đum": 4983,
      "Đat": 4984,
      "Đôk": 4985,
      "đanh": 4986,
      "đưk": 4987,
      "đua": 4988,
      "đơu": 4989,
      "đâp": 4990,
      "đơgiêng": 4991,
      "đời": 4992,
      "định": 4993,
      "đư̆ng": 4994,
      "ĭn": 4995,
      "ĭt": 4996,
      "Ơk": 4997,
      "Ơ̆i": 4998,
      "ơh": 4999,
      "ơng": 5000,
      "ơdr": 5001,
      "ơ̆t": 5002,
      "ơdrơ̆u": 5003,
      "ứng": 5004,
      "##TQ": 5005,
      "##ŭ": 5006,
      "##uam": 5007,
      "##ning": 5008,
      "##nar": 5009,
      "##go": 5010,
      "##gan": 5011,
      "##gloh": 5012,
      "##gas": 5013,
      "##hi": 5014,
      "##ha": 5015,
      "##hĕi": 5016,
      "##ec": 5017,
      "##el": 5018,
      "##eå": 5019,
      "##ĕt": 5020,
      "##ĕp": 5021,
      "##eoptera": 5022,
      "##̆h": 5023,
      "##̆nh": 5024,
      "##puch": 5025,
      "##pran": 5026,
      "##ĕn": 5027,
      "##yăn": 5028,
      "##yco": 5029,
      "##tac": 5030,
      "##ơch": 5031,
      "##do": 5032,
      "##dinh": 5033,
      "##dă": 5034,
      "##din": 5035,
      "##rn": 5036,
      "##rĕi": 5037,
      "##ral": 5038,
      "##rol": 5039,
      "##ruôih": 5040,
      "##rer": 5041,
      "##ium": 5042,
      "##ma": 5043,
      "##ag": 5044,
      "##ăt": 5045,
      "##ke": 5046,
      "##kơ": 5047,
      "##ŏh": 5048,
      "##ám": 5049,
      "##lung": 5050,
      "##lep": 5051,
      "##lei": 5052,
      "##9m3": 5053,
      "##ĭh": 5054,
      "##ĭk": 5055,
      "##ŭh": 5056,
      "##ŭc": 5057,
      "##ŭl": 5058,
      "##68": 5059,
      "##6kg": 5060,
      "##ss": 5061,
      "##sma": 5062,
      "##AT": 5063,
      "##A3": 5064,
      "##ạnh": 5065,
      "##̌c": 5066,
      "##̌ng": 5067,
      "##CN": 5068,
      "##CC": 5069,
      "##bin": 5070,
      "##ĩnh": 5071,
      "##ấu": 5072,
      "##ất": 5073,
      "##HG": 5074,
      "##ờng": 5075,
      "##ản": 5076,
      "##Êân": 5077,
      "##wer": 5078,
      "##zil": 5079,
      "##VT": 5080,
      "##VC": 5081,
      "##ết": 5082,
      "##BT": 5083,
      "##àn": 5084,
      "##àng": 5085,
      "##PH": 5086,
      "##đah": 5087,
      "##ĐTN": 5088,
      "##ền": 5089,
      "##òng": 5090,
      "##ïh": 5091,
      "##ển": 5092,
      "##quy": 5093,
      "##ví": 5094,
      "##vil": 5095,
      "##Opuôn": 5096,
      "tơr": 5097,
      "tơdrơ̆u": 5098,
      "tơyung": 5099,
      "tơnhư": 5100,
      "tơyăn": 5101,
      "pơhr": 5102,
      "##ơ̆r": 5103,
      "##ĕin": 5104,
      "chh": 5105,
      "chr": 5106,
      "cho": 5107,
      "chủ": 5108,
      "cheng": 5109,
      "chăng": 5110,
      "chal": 5111,
      "chêng": 5112,
      "chiêm": 5113,
      "châÊn": 5114,
      "choc": 5115,
      "trợ": 5116,
      "trẻ": 5117,
      "trị": 5118,
      "trơ̆": 5119,
      "trơĭ": 5120,
      "trâ̆n": 5121,
      "thŏng": 5122,
      "thach": 5123,
      "thăp": 5124,
      "thơu": 5125,
      "thâÊ": 5126,
      "thuôl": 5127,
      "##ămg": 5128,
      "khăng": 5129,
      "khăn": 5130,
      "##ani": 5131,
      "##chi": 5132,
      "ngok": 5133,
      "ngiêp": 5134,
      "ngĕnh": 5135,
      "ngày": 5136,
      "kơh": 5137,
      "kơy": 5138,
      "kơï": 5139,
      "adrŭng": 5140,
      "wengăn": 5141,
      "phụ": 5142,
      "phok": 5143,
      "phơĭ": 5144,
      "phich": 5145,
      "phĭn": 5146,
      "phep": 5147,
      "phòng": 5148,
      "năt": 5149,
      "pơtih": 5150,
      "pơlĕio": 5151,
      "hoạ": 5152,
      "hoăn": 5153,
      "ană": 5154,
      "nhương": 5155,
      "nhuân": 5156,
      "nhui": 5157,
      "nhĭp": 5158,
      "nhĕt": 5159,
      "hrĭng": 5160,
      "hral": 5161,
      "hrul": 5162,
      "đac": 5163,
      "đach": 5164,
      "đăp": 5165,
      "mak": 5166,
      "măn": 5167,
      "pơgê": 5168,
      "sưh": 5169,
      "Tha": 5170,
      "Thân": 5171,
      "Thôi": 5172,
      "Thiêu": 5173,
      "Thiên": 5174,
      "Thê̆": 5175,
      "Thâm": 5176,
      "Thông": 5177,
      "Thiê̆t": 5178,
      "Thô̆ng": 5179,
      "nghiêng": 5180,
      "nghê̆": 5181,
      "nghĭm": 5182,
      "lơmŏ": 5183,
      "lơmek": 5184,
      "dơnăng": 5185,
      "dơnê̆": 5186,
      "tơgăl": 5187,
      "##onic": 5188,
      "tơpl": 5189,
      "tơpang": 5190,
      "tơpoh": 5191,
      "tơpih": 5192,
      "tơpol": 5193,
      "longue": 5194,
      "pơjinh": 5195,
      "hơy": 5196,
      "hơđ": 5197,
      "thuk": 5198,
      "thuô̆": 5199,
      "YôlI": 5200,
      "pơđep": 5201,
      "##aland": 5202,
      "jơhh": 5203,
      "alê̆": 5204,
      "##ôp": 5205,
      "bĭn": 5206,
      "kut": 5207,
      "kŭng": 5208,
      "lư̆k": 5209,
      "lươc": 5210,
      "đô̆ng": 5211,
      "măi": 5212,
      "măc": 5213,
      "Chih": 5214,
      "Chĭnh": 5215,
      "Chum": 5216,
      "Chua": 5217,
      "Chŭk": 5218,
      "Chruh": 5219,
      "Chuyên": 5220,
      "Chrŭh": 5221,
      "Chính": 5222,
      "208": 5223,
      "Trư": 5224,
      "Trŏ": 5225,
      "Triêu": 5226,
      "Triên": 5227,
      "Trưk": 5228,
      "Trach": 5229,
      "Trĭnh": 5230,
      "Truyên": 5231,
      "Triên": 5232,
      "nar": 5233,
      "tiĕ": 5234,
      "tiê̆t": 5235,
      "wăi": 5236,
      "gio": 5237,
      "giăm": 5238,
      "gioi": 5239,
      "giám": 5240,
      "hlung": 5241,
      "hlăng": 5242,
      "hlah": 5243,
      "hlơp": 5244,
      "hlut": 5245,
      "gling": 5246,
      "glar": 5247,
      "glip": 5248,
      "sơruôih": 5249,
      "apo": 5250,
      "apal": 5251,
      "dru": 5252,
      "driêu": 5253,
      "drech": 5254,
      "drê̆ch": 5255,
      "##ricul": 5256,
      "##ĭn": 5257,
      "Tơring": 5258,
      "Tơroi": 5259,
      "thich": 5260,
      "Phŭk": 5261,
      "Phuk": 5262,
      "Phyt": 5263,
      "Nguy": 5264,
      "chănh": 5265,
      "têk": 5266,
      "Binẖ": 5267,
      "tơjot": 5268,
      "hlăk": 5269,
      "kron": 5270,
      "ky̌": 5271,
      "areh": 5272,
      "jươ̆k": 5273,
      "bau": 5274,
      "bay": 5275,
      "bâu": 5276,
      "tươĭ": 5277,
      "105": 5278,
      "bơk": 5279,
      "bơj": 5280,
      "tơlach": 5281,
      "tơlah": 5282,
      "đĭn": 5283,
      "leï": 5284,
      "biê̆": 5285,
      "kơdĭh": 5286,
      "Adrơ̆u": 5287,
      "Adrech": 5288,
      "chuû": 5289,
      "thêm": 5290,
      "triệu": 5291,
      "triển": 5292,
      "Pơchi": 5293,
      "Nhă": 5294,
      "Nhong": 5295,
      "Nhiêt": 5296,
      "NhâÊt": 5297,
      "kraoke": 5298,
      "ake": 5299,
      "akal": 5300,
      "nghêp": 5301,
      "##iê̆p": 5302,
      "##iê̆u": 5303,
      "Giang": 5304,
      "##iê̆p": 5305,
      "thep": 5306,
      "2022": 5307,
      "Khung": 5308,
      "Khao": 5309,
      "Khach": 5310,
      "Khuyên": 5311,
      "Khuân": 5312,
      "Khơĭ": 5313,
      "Khuôĭ": 5314,
      "Khŭ̆n": 5315,
      "bơlŏ": 5316,
      "pro": 5317,
      "prah": 5318,
      "prot": 5319,
      "amuô̆": 5320,
      "sriêp": 5321,
      "srah": 5322,
      "sơ̆k": 5323,
      "klênh": 5324,
      "khoe": 5325,
      "asai": 5326,
      "brêng": 5327,
      "brưm": 5328,
      "brơt": 5329,
      "##omil": 5330,
      "kơsô̆": 5331,
      "Pơtruh": 5332,
      "100kg": 5333,
      "plŏk": 5334,
      "plŭk": 5335,
      "pluk": 5336,
      "plăi": 5337,
      "plech": 5338,
      "plềnh": 5339,
      "kơtong": 5340,
      "kơtĕi": 5341,
      "kơtao": 5342,
      "kơtŏng": 5343,
      "kơtơ̆h": 5344,
      "kơtau": 5345,
      "kơtiêl": 5346,
      "tơno": 5347,
      "tơnăn": 5348,
      "thuyêt": 5349,
      "chơđeh": 5350,
      "HĐĐT": 5351,
      "bơghê": 5352,
      "##opla": 5353,
      "bơdrơ̆ng": 5354,
      "chưak": 5355,
      "''.": 5356,
      "Hoat": 5357,
      "binhdinh": 5358,
      "dươc": 5359,
      "hioh": 5360,
      "nhươi": 5361,
      "quat": 5362,
      "trŏng": 5363,
      "kơnia": 5364,
      "tơtông": 5365,
      "tơtoanh": 5366,
      "Antac": 5367,
      "Anvil": 5368,
      "gôp": 5369,
      "său": 5370,
      "quĭ": 5371,
      "195": 5372,
      "197": 5373,
      "192": 5374,
      "Mĭr": 5375,
      "laĭ": 5376,
      "pơliêu": 5377,
      "pơlŏng": 5378,
      "pơlôm": 5379,
      "pơluk": 5380,
      "pơlenh": 5381,
      "pơlôh": 5382,
      "hơpo": 5383,
      "Quyê": 5384,
      "sơhlung": 5385,
      "12A": 5386,
      "122": 5387,
      "##ara": 5388,
      "toa": 5389,
      "todrong": 5390,
      "gơdŭ": 5391,
      "tuih": 5392,
      "kơlok": 5393,
      "anhô": 5394,
      "grê": 5395,
      "grơ̆": 5396,
      "grôi": 5397,
      "grăn": 5398,
      "grêh": 5399,
      "huăng": 5400,
      "huăt": 5401,
      "phô̆i": 5402,
      "tơkơn": 5403,
      "tơkach": 5404,
      "tơkrau": 5405,
      "tơklep": 5406,
      "Hoay": 5407,
      "hyơl": 5408,
      "hyah": 5409,
      "hyăh": 5410,
      "hyŏh": 5411,
      "tơ̆kpơ̆k": 5412,
      "tơjrot": 5413,
      "tơjrư̆m": 5414,
      "sơhmuôn": 5415,
      "sơhmach": 5416,
      "113": 5417,
      "115": 5418,
      "119": 5419,
      "118": 5420,
      "blơ̆": 5421,
      "blong": 5422,
      "blai": 5423,
      "blăn": 5424,
      "305": 5425,
      "hmuôch": 5426,
      "hmiêt": 5427,
      "##TNMT": 5428,
      "bơnăt": 5429,
      "##idoptera": 5430,
      "##idomil": 5431,
      "pơnai": 5432,
      "pơnih": 5433,
      "thoai": 5434,
      "tơngiêt": 5435,
      "cŭm": 5436,
      "cuộc": 5437,
      "Dơnol": 5438,
      "Hơbo": 5439,
      "dơbŏng": 5440,
      "KHHG": 5441,
      "..)": 5442,
      "Măt": 5443,
      "Mast": 5444,
      "bưp": 5445,
      "155": 5446,
      "154": 5447,
      "158": 5448,
      "kơmon": 5449,
      "gưp": 5450,
      "soá": 5451,
      "sođah": 5452,
      "Phuơk": 5453,
      "tăng": 5454,
      "2006": 5455,
      "CTUBND": 5456,
      "142": 5457,
      "Mălei": 5458,
      "achuang": 5459,
      "truc": 5460,
      "jiat": 5461,
      "nghiêm": 5462,
      "Tôt": 5463,
      "ghê": 5464,
      "chĭh": 5465,
      "chĭ̌n": 5466,
      "139": 5467,
      "138": 5468,
      "130": 5469,
      "247": 5470,
      "chơkanh": 5471,
      "chơkul": 5472,
      "sun": 5473,
      "suai": 5474,
      "super": 5475,
      "supe": 5476,
      "supl": 5477,
      "suốt": 5478,
      "silic": 5479,
      "kơdiơ̆ng": 5480,
      "bêk": 5481,
      "xuâÊt": 5482,
      "ade": 5483,
      "aduh": 5484,
      "adech": 5485,
      "adơi": 5486,
      "bĭa": 5487,
      "kơdrô": 5488,
      "kơdrưng": 5489,
      "kơdrăt": 5490,
      "163": 5491,
      "160": 5492,
      "1668": 5493,
      "273": 5494,
      "Yuăn": 5495,
      "264": 5496,
      "262": 5497,
      "bơdŏ": 5498,
      "bơdong": 5499,
      "350": 5500,
      "nhip": 5501,
      "173": 5502,
      "174": 5503,
      "298": 5504,
      "2997": 5505,
      "pơdưng": 5506,
      "pơdal": 5507,
      "pơdô̆": 5508,
      "chŭc": 5509,
      "Thư̆": 5510,
      "220": 5511,
      "Athu": 5512,
      "Atonic": 5513,
      "kiăn": 5514,
      "kô̆t": 5515,
      "AÂu": 5516,
      "angiêng": 5517,
      "gôp": 5518,
      "luông": 5519,
      "thư̆̆": 5520,
      "405": 5521,
      "Dunh": 5522,
      "Dual": 5523,
      "kơđŏ": 5524,
      "376": 5525,
      "TBR": 5526,
      "phay": 5527,
      "phaan": 5528,
      "nhâ̆t": 5529,
      "nhâ̆p": 5530,
      "trưởng": 5531,
      "nhănh": 5532,
      "230": 5533,
      "237": 5534,
      "310": 5535,
      "BCT": 5536,
      "BCĐ": 5537,
      "hŏch": 5538,
      "500m3": 5539,
      "991": 5540,
      "Điều": 5541,
      "kơnho": 5542,
      "kơnhiêm": 5543,
      "chơpik": 5544,
      "##peran": 5545,
      "kơchik": 5546,
      "kơchĭk": 5547,
      "808": 5548,
      "gơlơng": 5549,
      "gơlaĭ": 5550,
      "Đôn": 5551,
      "Đô̆i": 5552,
      "khuyêt": 5553,
      "LHTNVN": 5554,
      "524": 5555,
      "950": 5556,
      "Hưch": 5557,
      "koang": 5558,
      "kŏa": 5559,
      "tơwĕch": 5560,
      "pơsum": 5561,
      "381": 5562,
      "494": 5563,
      "467": 5564,
      "CNVC": 5565,
      "337": 5566,
      "VNPT": 5567,
      "gov": 5568,
      "kơkan": 5569,
      "650": 5570,
      "hiê̆": 5571,
      "tĭ̆t": 5572,
      "HDND": 5573,
      "Kuơ̆n": 5574,
      "Kuôk": 5575,
      "QLN": 5576,
      "dơgal": 5577,
      "326": 5578,
      "Aleh": 5579,
      "Cưa": 5580,
      "Klot": 5581,
      "hơhĕi": 5582,
      "yuyê̆t": 5583,
      "437": 5584,
      "jŭ": 5585,
      "jơmul": 5586,
      "lược": 5587,
      "Bioss": 5588,
      ",''": 5589,
      "AÊi": 5590,
      "agar": 5591,
      "corona": 5592,
      "hhĕi": 5593,
      "sơlung": 5594,
      "đăy": 5595,
      "điê̆p": 5596,
      "hơbu": 5597,
      "1930": 5598,
      "mơhiach": 5599,
      "mơhiưch": 5600,
      "Auricul": 5601,
      "Ami": 5602,
      "BTTTT": 5603,
      "Cyperan": 5604,
      "Kămpuch": 5605,
      "NHơn": 5606,
      "VHXH": 5607,
      "VPCP": 5608,
      "ahrĕi": 5609,
      "jokot": 5610,
      "liệu": 5611,
      "mạng": 5612,
      "oxi": 5613,
      "panô": 5614,
      "ơtol": 5615,
      "chơhnong": 5616,
      "thơ̌ng": 5617,
      "adrĭngkhul": 5618,
      "Chơđong": 5619,
      "Drought": 5620,
      "Carbendo": 5621,
      "Agar": 5622,
      "Akanh": 5623,
      "Azơn": 5624,
      "Actara": 5625,
      "Brơ̆u": 5626,
      "BHYT": 5627,
      "Bơlơ̆ng": 5628,
      "Bahnar": 5629,
      "Feed": 5630,
      "Flower": 5631,
      "Jorai": 5632,
      "Jjuô": 5633,
      "JICA": 5634,
      "Kơna": 5635,
      "LLVT": 5636,
      "Lepidoptera": 5637,
      "Mơmơ̆u": 5638,
      "Mahyco": 5639,
      "MHC2": 5640,
      "Nŭi": 5641,
      "ODA": 5642,
      "Pơnam": 5643,
      "QCVN": 5644,
      "Srơ̆p": 5645,
      "Sistep": 5646,
      "Tài": 5647,
      "Tiê̆ng": 5648,
      "Tây": 5649,
      "TCLN": 5650,
      "Zealand": 5651,
      "bỡl": 5652,
      "cấp": 5653,
      "cacbin": 5654,
      "dụng": 5655,
      "gglong": 5656,
      "gơgŏ": 5657,
      "heta": 5658,
      "iêl": 5659,
      "jăl": 5660,
      "kWh": 5661,
      "lờm": 5662,
      "lĭch": 5663,
      "nô̆p": 5664,
      "rrih": 5665,
      "syõ": 5666,
      "Đảng": 5667,
      "ĐRin": 5668,
      "thâÊm": 5669,
      "thuô̆k": 5670,
      "glarh": 5671,
      "Phytopla": 5672,
      "biê̆k": 5673,
      "protĕin": 5674,
      "HĐĐTW": 5675,
      "Antaco": 5676,
      "KHHGĐ": 5677,
      "Mastrer": 5678,
      "suplơ": 5679,
      "kơđŏh": 5680,
      "Biossed": 5681,
      "Auriculari": 5682,
      "Kămpuchia": 5683,
      "Phytoplasma": 5684,
      "!.": 5685,
      ")…": 5686,
      ",,": 5687,
      ",…": 5688,
      "-'": 5689,
      "0CP": 5690,
      "2kg": 5691,
      "2ha": 5692,
      "3m3": 5693,
      "5ha": 5694,
      "6A1": 5695,
      "79": 5696,
      "7A1": 5697,
      "8A1": 5698,
      "9m3": 5699,
      "9A1": 5700,
      "9A2": 5701,
      ":.": 5702,
      ":/": 5703,
      "AT": 5704,
      "Ad": 5705,
      "Ac": 5706,
      "Ab": 5707,
      "AI": 5708,
      "Ađ": 5709,
      "Arol": 5710,
      "BD": 5711,
      "Bt": 5712,
      "Bê": 5713,
      "B4": 5714,
      "Bŭ": 5715,
      "BV": 5716,
      "BG": 5717,
      "BĐ": 5718,
      "BO": 5719,
      "Bơn": 5720,
      "Biêu": 5721,
      "Bŏng": 5722,
      "Bat": 5723,
      "Bet": 5724,
      "Bit": 5725,
      "Bom": 5726,
      "Bơ̆n": 5727,
      "Biên": 5728,
      "Bra": 5729,
      "Bồng": 5730,
      "BAT": 5731,
      "BTNMT": 5732,
      "Ca": 5733,
      "Cl": 5734,
      "CQ": 5735,
      "CĐ": 5736,
      "Cam": 5737,
      "Can": 5738,
      "Cương": 5739,
      "Cân": 5740,
      "Cho": 5741,
      "Col": 5742,
      "Căt": 5743,
      "Com": 5744,
      "CTT": 5745,
      "Cer": 5746,
      "Cent": 5747,
      "DS": 5748,
      "Dd": 5749,
      "DC": 5750,
      "Dj": 5751,
      "Dự": 5752,
      "DV": 5753,
      "Dan": 5754,
      "Diêm": 5755,
      "Dơt": 5756,
      "Dâ": 5757,
      "Diê̆": 5758,
      "Dech": 5759,
      "Dui": 5760,
      "DTT": 5761,
      "Dia": 5762,
      "Dist": 5763,
      "Dec": 5764,
      "Et": 5765,
      "Eo": 5766,
      "Ei": 5767,
      "EU": 5768,
      "Fu": 5769,
      "Fo": 5770,
      "Fus": 5771,
      "Fran": 5772,
      "GT": 5773,
      "Gn": 5774,
      "Gơ": 5775,
      "Găm": 5776,
      "Gơd": 5777,
      "Ghi": 5778,
      "HT": 5779,
      "H5": 5780,
      "Hi": 5781,
      "Hă": 5782,
      "Hl": 5783,
      "HN": 5784,
      "HI": 5785,
      "HP": 5786,
      "Hồ": 5787,
      "Hổ": 5788,
      "Hang": 5789,
      "Hơ̆u": 5790,
      "Hô": 5791,
      "Hơg": 5792,
      "Hâm": 5793,
      "Hơu": 5794,
      "Hông": 5795,
      "Hươ": 5796,
      "Hiê̆n": 5797,
      "His": 5798,
      "Hồng": 5799,
      "Hrol": 5800,
      "IC": 5801,
      "IU": 5802,
      "Jung": 5803,
      "Jơm": 5804,
      "Jră": 5805,
      "Jên": 5806,
      "Jĕl": 5807,
      "Jru": 5808,
      "Ke": 5809,
      "KD": 5810,
      "Ko": 5811,
      "Ki": 5812,
      "Kế": 5813,
      "KB": 5814,
      "KĐ": 5815,
      "KƠ": 5816,
      "Kơ̆u": 5817,
      "Koan": 5818,
      "Kơg": 5819,
      "Kring": 5820,
      "Kem": 5821,
      "Kuk": 5822,
      "Kiêt": 5823,
      "Kom": 5824,
      "Kân": 5825,
      "Kĭch": 5826,
      "Kiê̆n": 5827,
      "Kiê̆n": 5828,
      "Klong": 5829,
      "KTX": 5830,
      "Kiêm": 5831,
      "Kuan": 5832,
      "Kenl": 5833,
      "Kdă": 5834,
      "Lu": 5835,
      "Li": 5836,
      "Lô": 5837,
      "Lễ": 5838,
      "Lan": 5839,
      "Lung": 5840,
      "Lân": 5841,
      "Lăn": 5842,
      "Lêch": 5843,
      "Lŏng": 5844,
      "Lok": 5845,
      "Lach": 5846,
      "Lăp": 5847,
      "Lak": 5848,
      "Lin": 5849,
      "LVN": 5850,
      "Lĭm": 5851,
      "Led": 5852,
      "LĐTBXH": 5853,
      "LCA": 5854,
      "Luô̆ng": 5855,
      "MT": 5856,
      "Mg": 5857,
      "Me": 5858,
      "Mư": 5859,
      "M6": 5860,
      "M8": 5861,
      "Mỹ": 5862,
      "Mương": 5863,
      "Mưng": 5864,
      "Mua": 5865,
      "Map": 5866,
      "Muk": 5867,
      "Mơĭ": 5868,
      "Mil": 5869,
      "Mơu": 5870,
      "Mưc": 5871,
      "Môi": 5872,
      "Mời": 5873,
      "Mức": 5874,
      "Mămg": 5875,
      "NT": 5876,
      "Nk": 5877,
      "NC": 5878,
      "NK": 5879,
      "Ninh": 5880,
      "Nơng": 5881,
      "Niên": 5882,
      "Nên": 5883,
      "Nơĭ": 5884,
      "Nau": 5885,
      "NHC": 5886,
      "Năm": 5887,
      "Nis": 5888,
      "On": 5889,
      "Oo": 5890,
      "O2": 5891,
      "OÂ": 5892,
      "Oid": 5893,
      "Pe": 5894,
      "Py": 5895,
      "PN": 5896,
      "PH": 5897,
      "PB": 5898,
      "PL": 5899,
      "PE": 5900,
      "Pơh": 5901,
      "Pŭk": 5902,
      "Pit": 5903,
      "Per": 5904,
      "Pôk": 5905,
      "Pis": 5906,
      "PAC": 5907,
      "Pgloh": 5908,
      "POpuôn": 5909,
      "Qŭ": 5910,
      "Rh": 5911,
      "Re": 5912,
      "Rơ": 5913,
      "RE": 5914,
      "Ranh": 5915,
      "Rĭng": 5916,
      "Rum": 5917,
      "Rach": 5918,
      "Rat": 5919,
      "Ren": 5920,
      "Rôp": 5921,
      "Riu": 5922,
      "RAT": 5923,
      "Ridomil": 5924,
      "Sy": 5925,
      "So": 5926,
      "Si": 5927,
      "SM": 5928,
      "SỮ": 5929,
      "SƠ": 5930,
      "Sông": 5931,
      "Sang": 5932,
      "Sung": 5933,
      "Sao": 5934,
      "Sân": 5935,
      "Soan": 5936,
      "Sâm": 5937,
      "Sat": 5938,
      "STT": 5939,
      "SXD": 5940,
      "Srĕ": 5941,
      "SDL": 5942,
      "Sĭt": 5943,
      "Sáng": 5944,
      "SAC": 5945,
      "STNMT": 5946,
      "TK": 5947,
      "TL": 5948,
      "TR": 5949,
      "TÖ": 5950,
      "Tơng": 5951,
      "Tang": 5952,
      "Tanh": 5953,
      "Tương": 5954,
      "Tăng": 5955,
      "Tơl": 5956,
      "Tŭk": 5957,
      "Tŭ̆t": 5958,
      "Tuk": 5959,
      "Tĕch": 5960,
      "Tiêt": 5961,
      "Tă": 5962,
      "Tin": 5963,
      "Top": 5964,
      "TâÊn": 5965,
      "Tiêu": 5966,
      "Tâp": 5967,
      "Tŭ̆n": 5968,
      "Tuôch": 5969,
      "TĐTN": 5970,
      "Tiê̆p": 5971,
      "Tiê̆p": 5972,
      "US": 5973,
      "UN": 5974,
      "Unh": 5975,
      "Vư": 5976,
      "VX": 5977,
      "VI": 5978,
      "Võ": 5979,
      "Vó": 5980,
      "Vdr": 5981,
      "Van": 5982,
      "Vung": 5983,
      "Vai": 5984,
      "Vĭ": 5985,
      "Vêt": 5986,
      "Vic": 5987,
      "Vê̆t": 5988,
      "Vis": 5989,
      "Với": 5990,
      "VAC": 5991,
      "Vĩnh": 5992,
      "WB": 5993,
      "Wĕi": 5994,
      "Wim": 5995,
      "Wai": 5996,
      "Wĕi": 5997,
      "Wau": 5998,
      "Xi": 5999
    }
  }
}